{
  "version": "1.0",
  "truncation": null,
  "padding": null,
  "added_tokens": [
    {
      "id": 0,
      "content": "[UNK]",
      "single_word": false,
      "lstrip": false,
      "rstrip": false,
      "normalized": false,
      "special": true
    },
    {
      "id": 1,
      "content": "[CLS]",
      "single_word": false,
      "lstrip": false,
      "rstrip": false,
      "normalized": false,
      "special": true
    },
    {
      "id": 2,
      "content": "[SEP]",
      "single_word": false,
      "lstrip": false,
      "rstrip": false,
      "normalized": false,
      "special": true
    },
    {
      "id": 3,
      "content": "[PAD]",
      "single_word": false,
      "lstrip": false,
      "rstrip": false,
      "normalized": false,
      "special": true
    },
    {
      "id": 4,
      "content": "[MASK]",
      "single_word": false,
      "lstrip": false,
      "rstrip": false,
      "normalized": false,
      "special": true
    }
  ],
  "normalizer": null,
  "pre_tokenizer": {
    "type": "Whitespace"
  },
  "post_processor": null,
  "decoder": null,
  "model": {
    "type": "BPE",
    "dropout": null,
    "unk_token": "[UNK]",
    "continuing_subword_prefix": null,
    "end_of_word_suffix": null,
    "fuse_unk": false,
    "byte_fallback": false,
    "ignore_merges": false,
    "vocab": {
      "[UNK]": 0,
      "[CLS]": 1,
      "[SEP]": 2,
      "[PAD]": 3,
      "[MASK]": 4,
      "!": 5,
      "\"": 6,
      "#": 7,
      "$": 8,
      "%": 9,
      "&": 10,
      "'": 11,
      "(": 12,
      ")": 13,
      "*": 14,
      "+": 15,
      ",": 16,
      "-": 17,
      ".": 18,
      "/": 19,
      "0": 20,
      "1": 21,
      "2": 22,
      "3": 23,
      "4": 24,
      "5": 25,
      "6": 26,
      "7": 27,
      "8": 28,
      "9": 29,
      ":": 30,
      ";": 31,
      "<": 32,
      "=": 33,
      ">": 34,
      "?": 35,
      "@": 36,
      "A": 37,
      "B": 38,
      "C": 39,
      "D": 40,
      "E": 41,
      "F": 42,
      "G": 43,
      "H": 44,
      "I": 45,
      "J": 46,
      "K": 47,
      "L": 48,
      "M": 49,
      "N": 50,
      "O": 51,
      "P": 52,
      "Q": 53,
      "R": 54,
      "S": 55,
      "T": 56,
      "U": 57,
      "V": 58,
      "W": 59,
      "X": 60,
      "Y": 61,
      "Z": 62,
      "[": 63,
      "\\": 64,
      "]": 65,
      "^": 66,
      "_": 67,
      "`": 68,
      "a": 69,
      "b": 70,
      "c": 71,
      "d": 72,
      "e": 73,
      "f": 74,
      "g": 75,
      "h": 76,
      "i": 77,
      "j": 78,
      "k": 79,
      "l": 80,
      "m": 81,
      "n": 82,
      "o": 83,
      "p": 84,
      "q": 85,
      "r": 86,
      "s": 87,
      "t": 88,
      "u": 89,
      "v": 90,
      "w": 91,
      "x": 92,
      "y": 93,
      "z": 94,
      "{": 95,
      "|": 96,
      "}": 97,
      "~": 98,
      "¡": 99,
      "¢": 100,
      "£": 101,
      "¤": 102,
      "¥": 103,
      "¦": 104,
      "§": 105,
      "¨": 106,
      "©": 107,
      "ª": 108,
      "«": 109,
      "¬": 110,
      "®": 111,
      "¯": 112,
      "°": 113,
      "±": 114,
      "²": 115,
      "³": 116,
      "´": 117,
      "µ": 118,
      "¶": 119,
      "·": 120,
      "¸": 121,
      "¹": 122,
      "º": 123,
      "»": 124,
      "¼": 125,
      "½": 126,
      "¾": 127,
      "¿": 128,
      "À": 129,
      "Á": 130,
      "Â": 131,
      "Ã": 132,
      "Ä": 133,
      "Å": 134,
      "Æ": 135,
      "Ç": 136,
      "È": 137,
      "É": 138,
      "Ê": 139,
      "Ë": 140,
      "Ì": 141,
      "Í": 142,
      "Î": 143,
      "Ï": 144,
      "Ð": 145,
      "Ñ": 146,
      "Ò": 147,
      "Ó": 148,
      "Ô": 149,
      "Õ": 150,
      "Ö": 151,
      "×": 152,
      "Ø": 153,
      "Ù": 154,
      "Ú": 155,
      "Û": 156,
      "Ü": 157,
      "Ý": 158,
      "Þ": 159,
      "ß": 160,
      "à": 161,
      "á": 162,
      "â": 163,
      "ã": 164,
      "ä": 165,
      "å": 166,
      "æ": 167,
      "ç": 168,
      "è": 169,
      "é": 170,
      "ê": 171,
      "ë": 172,
      "ì": 173,
      "í": 174,
      "î": 175,
      "ï": 176,
      "ð": 177,
      "ñ": 178,
      "ò": 179,
      "ó": 180,
      "ô": 181,
      "õ": 182,
      "ö": 183,
      "÷": 184,
      "ø": 185,
      "ù": 186,
      "ú": 187,
      "û": 188,
      "ü": 189,
      "ý": 190,
      "þ": 191,
      "ÿ": 192,
      "Ā": 193,
      "ā": 194,
      "Ă": 195,
      "ă": 196,
      "Ą": 197,
      "ą": 198,
      "Ć": 199,
      "ć": 200,
      "Ĉ": 201,
      "ĉ": 202,
      "Ċ": 203,
      "ċ": 204,
      "Č": 205,
      "č": 206,
      "Ď": 207,
      "ď": 208,
      "Đ": 209,
      "đ": 210,
      "Ē": 211,
      "ē": 212,
      "Ĕ": 213,
      "ĕ": 214,
      "Ė": 215,
      "ė": 216,
      "Ę": 217,
      "ę": 218,
      "Ě": 219,
      "ě": 220,
      "Ĝ": 221,
      "ĝ": 222,
      "Ğ": 223,
      "ğ": 224,
      "Ġ": 225,
      "ġ": 226,
      "Ģ": 227,
      "ģ": 228,
      "Ĥ": 229,
      "ĥ": 230,
      "Ħ": 231,
      "ħ": 232,
      "Ĩ": 233,
      "ĩ": 234,
      "Ī": 235,
      "ī": 236,
      "Ĭ": 237,
      "ĭ": 238,
      "Į": 239,
      "į": 240,
      "İ": 241,
      "ı": 242,
      "Ĳ": 243,
      "ĳ": 244,
      "Ĵ": 245,
      "ĵ": 246,
      "Ķ": 247,
      "ķ": 248,
      "ĸ": 249,
      "Ĺ": 250,
      "ĺ": 251,
      "Ļ": 252,
      "ļ": 253,
      "Ľ": 254,
      "ľ": 255,
      "Ŀ": 256,
      "ŀ": 257,
      "Ł": 258,
      "ł": 259,
      "Ń": 260,
      "00": 261,
      "u00": 262,
      "\\\"": 263,
      "\":": 264,
      "22": 265,
      "\",": 266,
      "on": 267,
      "10": 268,
      "se": 269,
      "en": 270,
      "20": 271,
      "in": 272,
      "at": 273,
      "17": 274,
      "er": 275,
      "ec": 276,
      "3A": 277,
      "28": 278,
      "u000": 279,
      "st": 280,
      "ion": 281,
      "\\\":": 282,
      "co": 283,
      "et": 284,
      "64": 285,
      "ent": 286,
      "2C": 287,
      "re": 288,
      "ch": 289,
      "u001": 290,
      "id": 291,
      "an": 292,
      "\\\",": 293,
      "ag": 294,
      "br": 295,
      "},": 296,
      "1728": 297,
      "or": 298,
      "le": 299,
      "de": 300,
      "Win": 301,
      "29": 302,
      "80": 303,
      "it": 304,
      "ro": 305,
      "ww": 306,
      "{\"": 307,
      "\"},": 308,
      "\\\\": 309,
      "ad": 310,
      "al": 311,
      "37": 312,
      "ce": 313,
      "ho": 314,
      "105": 315,
      "25": 316,
      "24": 317,
      "me": 318,
      "ur": 319,
      "u00d": 320,
      "11": 321,
      "\\\":\\\"": 322,
      "pt": 323,
      "u009": 324,
      "3D": 325,
      "age": 326,
      "\\\",\\\"": 327,
      "ac": 328,
      "lo": 329,
      "5C": 330,
      "do": 331,
      "ss": 332,
      "Con": 333,
      "ser": 334,
      "36": 335,
      "ers": 336,
      "ll": 337,
      "AA": 338,
      "16": 339,
      "ect": 340,
      "url": 341,
      "tr": 342,
      "ue": 343,
      "19": 344,
      "sec": 345,
      "ar": 346,
      "zi": 347,
      "li": 348,
      "7C": 349,
      "26": 350,
      "dat": 351,
      "ws": 352,
      "55": 353,
      "2F": 354,
      "u001a": 355,
      "pp": 356,
      "u00a": 357,
      "Mo": 358,
      "dows": 359,
      "56": 360,
      "NT": 361,
      "Windows": 362,
      "he": 363,
      "com": 364,
      "ko": 365,
      "ab": 366,
      "data": 367,
      "ing": 368,
      "0000": 369,
      "3E": 370,
      "u00c": 371,
      "ed": 372,
      "im": 373,
      "u008": 374,
      "u00b": 375,
      "u00f": 376,
      "14": 377,
      "ecko": 378,
      "ua": 379,
      "met": 380,
      "Ch": 381,
      "99": 382,
      "3C": 383,
      "eb": 384,
      "18": 385,
      "User": 386,
      "Gecko": 387,
      "lla": 388,
      "zilla": 389,
      "15": 390,
      "Mozilla": 391,
      "head": 392,
      "hod": 393,
      "method": 394,
      "=%": 395,
      "oo": 396,
      "27": 397,
      "ref": 398,
      "\"/": 399,
      "headers": 400,
      "=\\\"": 401,
      "tent": 402,
      "Ag": 403,
      "\\\";": 404,
      "www": 405,
      "s_": 406,
      "tt": 407,
      "Chro": 408,
      "u00e": 409,
      "yp": 410,
      "etch": 411,
      "ox": 412,
      "u0010": 413,
      "x64": 414,
      "Win64": 415,
      "66": 416,
      "40": 417,
      "af": 418,
      "ection": 419,
      "cept": 420,
      "ps": 421,
      "true": 422,
      "__": 423,
      "nection": 424,
      "23": 425,
      "100": 426,
      "Agent": 427,
      "ation": 428,
      "86": 429,
      "nt": 430,
      "c0": 431,
      "Connection": 432,
      "47": 433,
      "13": 434,
      "_s": 435,
      "07": 436,
      "ir": 437,
      "..": 438,
      "and": 439,
      "3B": 440,
      "for": 441,
      "iv": 442,
      "image": 443,
      "53": 444,
      "89": 445,
      "rv": 446,
      "ype": 447,
      "lose": 448,
      "Fi": 449,
      "con": 450,
      "49": 451,
      "ID": 452,
      "ex": 453,
      "u00d7": 454,
      "form": 455,
      "is": 456,
      "60": 457,
      "ie": 458,
      "172820": 459,
      "7B": 460,
      "59": 461,
      "101": 462,
      "ke": 463,
      "htt": 464,
      "\\\\\\\"": 465,
      "537": 466,
      "12": 467,
      "ig": 468,
      "7D": 469,
      "20100": 470,
      "close": 471,
      "refox": 472,
      "Firefox": 473,
      "20100101": 474,
      "mo": 475,
      "50": 476,
      "ut": 477,
      "OS": 478,
      "3A1": 479,
      "ssion": 480,
      "ae": 481,
      "ef": 482,
      "GE": 483,
      "https": 484,
      "54": 485,
      "ite": 486,
      "lat": 487,
      "Chrome": 488,
      "\\\"\",": 489,
      "lic": 490,
      "_g": 491,
      "83": 492,
      "app": 493,
      "u0004": 494,
      "MC": 495,
      "\"\\\"": 496,
      "87": 497,
      "Ac": 498,
      "57": 499,
      "ame": 500,
      "44": 501,
      "_c": 502,
      "//": 503,
      "u0002": 504,
      "96": 505,
      "ma": 506,
      "129": 507,
      ",-": 508,
      "ot": 509,
      "\"\"},": 510,
      "GET": 511,
      "94": 512,
      "{\\\"": 513,
      "ct": 514,
      "ap": 515,
      "Type": 516,
      "us": 517,
      "_id": 518,
      "000": 519,
      "Id": 520,
      "fb": 521,
      "32": 522,
      "est": 523,
      "84": 524,
      "Ij": 525,
      "D7": 526,
      "US": 527,
      "06": 528,
      ",\\\"": 529,
      "2024": 530,
      "1_": 531,
      "://": 532,
      "_u": 533,
      "33": 534,
      "_p": 535,
      "enco": 536,
      "Sec": 537,
      "05": 538,
      "kie": 539,
      "lication": 540,
      "application": 541,
      "Fetch": 542,
      "Accept": 543,
      "mi": 544,
      "ive": 545,
      "pr": 546,
      "um": 547,
      "session": 548,
      "97": 549,
      "fetch": 550,
      "2B": 551,
      "46": 552,
      "3c": 553,
      "OST": 554,
      "90": 555,
      "30": 556,
      "POST": 557,
      "\\\\\\\":": 558,
      "fal": 559,
      "f0": 560,
      "am": 561,
      "false": 562,
      "ML": 563,
      "ded": 564,
      "c1": 565,
      "gle": 566,
      "Content": 567,
      "21": 568,
      "77": 569,
      "av": 570,
      "accept": 571,
      "sent": 572,
      "oogle": 573,
      "ev": 574,
      "xb": 575,
      "irect": 576,
      "5D": 577,
      "un": 578,
      "4b": 579,
      "u0005": 580,
      "bi": 581,
      "gu": 582,
      "KH": 583,
      "43": 584,
      "70": 585,
      "5B": 586,
      "Not": 587,
      "e0": 588,
      "88": 589,
      "cl": 590,
      "if": 591,
      "pro": 592,
      "AQ": 593,
      "/*": 594,
      "sc": 595,
      "51": 596,
      "00000000": 597,
      "76": 598,
      "281": 599,
      "exp": 600,
      "il": 601,
      "Br": 602,
      "4d": 603,
      "52": 604,
      "om": 605,
      "red": 606,
      "u0001": 607,
      "ml": 608,
      "../": 609,
      "MT": 610,
      "20on": 611,
      "able": 612,
      "ari": 613,
      "dd": 614,
      "38": 615,
      "encoded": 616,
      ".%": 617,
      "urlencoded": 618,
      "C000": 619,
      "el": 620,
      "In": 621,
      "cd": 622,
      "58": 623,
      "def": 624,
      "AB": 625,
      "\"/\",": 626,
      "ity": 627,
      "ts": 628,
      "pc": 629,
      "39": 630,
      "a0": 631,
      "\"/?": 632,
      "17282055": 633,
      "rs": 634,
      "34": 635,
      "to": 636,
      "ding": 637,
      "App": 638,
      "Google": 639,
      "em": 640,
      "u0003": 641,
      "Web": 642,
      "Kit": 643,
      "WebKit": 644,
      "site": 645,
      "plat": 646,
      "En": 647,
      "74": 648,
      "ic": 649,
      "like": 650,
      "afari": 651,
      "bm": 652,
      "TML": 653,
      "Apple": 654,
      "Safari": 655,
      "KHTML": 656,
      "AppleWebKit": 657,
      "bb": 658,
      "78": 659,
      "angu": 660,
      "anguage": 661,
      "la": 662,
      "3d": 663,
      "no": 664,
      "5c": 665,
      "mium": 666,
      "Brand": 667,
      "platform": 668,
      "Chromium": 669,
      "82": 670,
      "fe": 671,
      "CJ": 672,
      "A1": 673,
      "a9": 674,
      "io": 675,
      "uct": 676,
      "zip": 677,
      "5e": 678,
      "||": 679,
      "b9": 680,
      "ng": 681,
      "172856": 682,
      "3F": 683,
      "~-": 684,
      "act": 685,
      "redirect": 686,
      "98": 687,
      "u0006": 688,
      "uid": 689,
      "ca": 690,
      "I6": 691,
      "Nz": 692,
      "01": 693,
      "\"?": 694,
      "2CC000": 695,
      "7CMC": 696,
      "Se": 697,
      "host": 698,
      "late": 699,
      "gzip": 700,
      "deflate": 701,
      "f8": 702,
      "bile": 703,
      "e6": 704,
      "mobile": 705,
      "fd": 706,
      "erer": 707,
      "a_": 708,
      "GS": 709,
      "79": 710,
      "th": 711,
      "_a": 712,
      "AAQ": 713,
      "ersion": 714,
      "coo": 715,
      "content": 716,
      "fc": 717,
      "63": 718,
      "*/*": 719,
      "ck": 720,
      "a6": 721,
      "ON": 722,
      "ime": 723,
      "cookie": 724,
      "be": 725,
      "ate": 726,
      "AQAA": 727,
      "cors": 728,
      "event": 729,
      "5d": 730,
      "RT": 731,
      "09": 732,
      "YAAQ": 733,
      "../../": 734,
      "wi": 735,
      "ul": 736,
      "sh": 737,
      "attent": 738,
      "attentive": 739,
      "__attentive": 740,
      "126": 741,
      "c6": 742,
      "2b": 743,
      "ee": 744,
      "web": 745,
      "_d": 746,
      "pg": 747,
      "ey": 748,
      "TA": 749,
      "igin": 750,
      "ff": 751,
      "bc": 752,
      "ND": 753,
      "page": 754,
      "ign": 755,
      ".-": 756,
      "48": 757,
      "iO": 758,
      "cc": 759,
      "art": 760,
      "pa": 761,
      "user": 762,
      "Im": 763,
      "MD": 764,
      "1f": 765,
      "ak": 766,
      "5b": 767,
      "a3": 768,
      "Ho": 769,
      "0d": 770,
      "u0000": 771,
      "3Bexp": 772,
      "_t": 773,
      "03": 774,
      "name": 775,
      "ep": 776,
      "ert": 777,
      "ice": 778,
      "Mj": 779,
      "Co": 780,
      "172866": 781,
      "c3": 782,
      "9c": 783,
      "Wx": 784,
      "08": 785,
      "js": 786,
      "c2": 787,
      "as": 788,
      "ni": 789,
      "dr": 790,
      "166": 791,
      "ter": 792,
      "73": 793,
      "sv": 794,
      "anon": 795,
      "_uet": 796,
      "sty": 797,
      "68": 798,
      "bo": 799,
      "main": 800,
      "ow": 801,
      "dw": 802,
      "=;": 803,
      "unt": 804,
      "45": 805,
      "di": 806,
      "91": 807,
      "d6": 808,
      "FB": 809,
      "1d": 810,
      "Coo": 811,
      "DF": 812,
      "ory": 813,
      "Cookie": 814,
      "version": 815,
      "vis": 816,
      "95": 817,
      "ST": 818,
      "ub": 819,
      "up": 820,
      "zst": 821,
      "zstd": 822,
      "11ef": 823,
      "2f": 824,
      "\\\":{\\\"": 825,
      "que": 826,
      "172810": 827,
      "boo": 828,
      "ri": 829,
      "ext": 830,
      "EA": 831,
      "a8": 832,
      "anding": 833,
      "origin": 834,
      "ZW": 835,
      "eo": 836,
      "bn": 837,
      "Or": 838,
      "A4": 839,
      "Ijo": 840,
      "Fw": 841,
      "set": 842,
      "35": 843,
      "75": 844,
      "test": 845,
      "4c": 846,
      "lk": 847,
      "Nj": 848,
      "\\\\\\\":\\\\\\\"": 849,
      "41": 850,
      "lient": 851,
      "_gcl": 852,
      "818": 853,
      "consent": 854,
      "3Etest": 855,
      "Aw": 856,
      "Mz": 857,
      "ZX": 858,
      "gp": 859,
      "duct": 860,
      "db": 861,
      "Site": 862,
      "sid": 863,
      "0_": 864,
      "Host": 865,
      "DD": 866,
      "UV": 867,
      "dc": 868,
      "1a": 869,
      "\\\\\\\",": 870,
      "amp": 871,
      "str": 872,
      "pb": 873,
      "71": 874,
      "ht": 875,
      "_re": 876,
      "c8": 877,
      "same": 878,
      "C8": 879,
      "etc": 880,
      "us_": 881,
      "Opt": 882,
      "e3": 883,
      "style": 884,
      "ES": 885,
      "Gpc": 886,
      "andingP": 887,
      "\\\\\\\",\\\\\\\"": 888,
      "uk": 889,
      "1b": 890,
      "A2": 891,
      "mp": 892,
      "op": 893,
      "67": 894,
      "seg": 895,
      "a5": 896,
      "Fl": 897,
      "dt": 898,
      "mode": 899,
      "9b": 900,
      "es": 901,
      "df": 902,
      "OD": 903,
      "93": 904,
      "=&": 905,
      "ha": 906,
      "_gcl_a": 907,
      "172886": 908,
      "ms": 909,
      "c5": 910,
      "92": 911,
      "OT": 912,
      "brow": 913,
      "UT": 914,
      "Optanon": 915,
      "_sc": 916,
      "St": 917,
      "ist": 918,
      "u0099": 919,
      "aa": 920,
      "61": 921,
      "der": 922,
      "qu": 923,
      "FP": 924,
      "Enco": 925,
      "Is": 926,
      "MM": 927,
      "Language": 928,
      "Encoding": 929,
      "TR": 930,
      "E1": 931,
      "keep": 932,
      "7f": 933,
      "alive": 934,
      "nu": 935,
      "Dest": 936,
      "d5": 937,
      "CS": 938,
      "Mode": 939,
      "/\",": 940,
      "Session": 941,
      "OP": 942,
      "u0095": 943,
      "br17": 944,
      "NI": 945,
      "c9": 946,
      "fo": 947,
      "dj": 948,
      "_session": 949,
      "u000f": 950,
      "_ga_": 951,
      "_b": 952,
      "mt": 953,
      "so": 954,
      "dW": 955,
      "mx": 956,
      "GF": 957,
      "AAAA": 958,
      "GS1": 959,
      "_in": 960,
      "d9": 961,
      "language": 962,
      "m1": 963,
      "sp": 964,
      "BR": 965,
      "ew": 966,
      "},{\\\"": 967,
      "ip": 968,
      "GA1": 969,
      "agent": 970,
      "cq": 971,
      "conf": 972,
      "04": 973,
      "dest": 974,
      "cy": 975,
      "u0007": 976,
      "69": 977,
      "81": 978,
      "eyJ": 979,
      "22id": 980,
      "HZ": 981,
      "C9": 982,
      "WF": 983,
      "a4": 984,
      "gap": 985,
      "alue": 986,
      "Mac": 987,
      "Ref": 988,
      "mail": 989,
      "MG": 990,
      "253A": 991,
      "f9": 992,
      "248": 993,
      "EC": 994,
      "type": 995,
      "Vl": 996,
      "EB": 997,
      "9v": 998,
      "sy": 999,
      "dm": 1000,
      "ZS": 1001,
      "0e": 1002,
      "QU": 1003,
      "AR": 1004,
      "xml": 1005,
      "D4": 1006,
      "cf": 1007,
      "Wp": 1008,
      "Referer": 1009,
      "V1": 1010,
      "_f": 1011,
      "ER": 1012,
      "svg": 1013,
      "_gcl_au": 1014,
      "iL": 1015,
      "3Afalse": 1016,
      "UN": 1017,
      "arch": 1018,
      "sho": 1019,
      "b3": 1020,
      "c7": 1021,
      "FF": 1022,
      "22br": 1023,
      "vid": 1024,
      "AC": 1025,
      "u0080": 1026,
      "*/*;": 1027,
      "b2": 1028,
      "log": 1029,
      "non": 1030,
      "200": 1031,
      "I4": 1032,
      "ui": 1033,
      "hm": 1034,
      "Yz": 1035,
      "OR": 1036,
      "u0015": 1037,
      "NG": 1038,
      "0x": 1039,
      "ol": 1040,
      "aut": 1041,
      "f6": 1042,
      "JT": 1043,
      "ag_": 1044,
      "action": 1045,
      "02": 1046,
      "XJ": 1047,
      "a7": 1048,
      ",*/*;": 1049,
      "b6": 1050,
      "rl": 1051,
      "8d": 1052,
      "AF": 1053,
      "BB": 1054,
      "1728205507": 1055,
      "rx": 1056,
      "},\\\"": 1057,
      "encoding": 1058,
      "all": 1059,
      "iS": 1060,
      "Consent": 1061,
      "hosts": 1062,
      "4a": 1063,
      "rc": 1064,
      "alert": 1065,
      "2Y": 1066,
      "*/*\",": 1067,
      "kF": 1068,
      "ior": 1069,
      "referer": 1070,
      "sk": 1071,
      "xp": 1072,
      "ale": 1073,
      "e7": 1074,
      "1728663": 1075,
      "hoo": 1076,
      "ath": 1077,
      "lp": 1078,
      "CL": 1079,
      "31": 1080,
      "mpt": 1081,
      "irm": 1082,
      "f7": 1083,
      "err": 1084,
      "2526": 1085,
      "confirm": 1086,
      "iz": 1087,
      "1728818": 1088,
      "webp": 1089,
      "aW": 1090,
      "hp": 1091,
      "CI6": 1092,
      "\\\":[": 1093,
      "172837": 1094,
      "180": 1095,
      "_S": 1096,
      "ds": 1097,
      "apng": 1098,
      "avif": 1099,
      "prior": 1100,
      "priority": 1101,
      "prompt": 1102,
      "42": 1103,
      "Mk": 1104,
      "n_": 1105,
      "0c": 1106,
      "\\\"}": 1107,
      "62": 1108,
      "boohoo": 1109,
      "bu": 1110,
      "\"*/*\",": 1111,
      "UA": 1112,
      "HS": 1113,
      "mer": 1114,
      "Zm": 1115,
      "cro": 1116,
      "fbp": 1117,
      "empt": 1118,
      "ken": 1119,
      "empty": 1120,
      "b0": 1121,
      "pi": 1122,
      "DB": 1123,
      "product": 1124,
      "VV": 1125,
      "e1": 1126,
      "stat": 1127,
      "tL": 1128,
      "0000000000000000": 1129,
      "YW": 1130,
      "gro": 1131,
      "fr": 1132,
      "omen": 1133,
      "_br": 1134,
      "b7": 1135,
      "_ga": 1136,
      "UR": 1137,
      "HR": 1138,
      "AM": 1139,
      "EF": 1140,
      "scri": 1141,
      "2U": 1142,
      "910": 1143,
      "252F": 1144,
      "u0011": 1145,
      "6d": 1146,
      "ment": 1147,
      "_fbp": 1148,
      "8a": 1149,
      "e9": 1150,
      "E9": 1151,
      "BG": 1152,
      "1720": 1153,
      "sign": 1154,
      "A0": 1155,
      "..%": 1156,
      "LP": 1157,
      "Time": 1158,
      "uf": 1159,
      "XR": 1160,
      "9B": 1161,
      "script": 1162,
      "Al": 1163,
      "loc": 1164,
      "ses": 1165,
      "5E": 1166,
      "_l": 1167,
      "--": 1168,
      ",\\\\\\\"": 1169,
      "Ww": 1170,
      "zO": 1171,
      "browser": 1172,
      "vice": 1173,
      "edit": 1174,
      "ged": 1175,
      "Nv": 1176,
      "85": 1177,
      "rt": 1178,
      "hd": 1179,
      "F0": 1180,
      "null": 1181,
      "ack": 1182,
      "text": 1183,
      "/*,*/*;": 1184,
      "pZ": 1185,
      "cross": 1186,
      "bd": 1187,
      "ED": 1188,
      "hZ": 1189,
      "A8": 1190,
      "utag_": 1191,
      "utag_main": 1192,
      "struct": 1193,
      "22on": 1194,
      "AT": 1195,
      "2a": 1196,
      "structor": 1197,
      "SG": 1198,
      "AX": 1199,
      "FQ": 1200,
      "c4": 1201,
      "u00a0": 1202,
      "Constructor": 1203,
      "ioID": 1204,
      "ConstructorioID": 1205,
      "pd": 1206,
      "anch": 1207,
      "u009c": 1208,
      "9f": 1209,
      "C6": 1210,
      "EX": 1211,
      "ure": 1212,
      "8v": 1213,
      "VN": 1214,
      "js_": 1215,
      "bl": 1216,
      "are": 1217,
      "time": 1218,
      "si": 1219,
      "_r": 1220,
      "Pj": 1221,
      "DN": 1222,
      "KA": 1223,
      "_uetvid": 1224,
      "_uetsid": 1225,
      "MR": 1226,
      "{\\\\\\\"": 1227,
      "quest": 1228,
      "M1": 1229,
      "drag": 1230,
      "3A0": 1231,
      "za": 1232,
      "fa": 1233,
      "16637": 1234,
      "pping": 1235,
      "ud": 1236,
      "bh": 1237,
      "MI": 1238,
      "22c": 1239,
      "3A172856": 1240,
      "kw": 1241,
      "u00a8": 1242,
      "qf": 1243,
      "10_": 1244,
      "u009e": 1245,
      "r6": 1246,
      "cx": 1247,
      "u00aa": 1248,
      "Ijox": 1249,
      "Qo": 1250,
      "_7": 1251,
      "127": 1252,
      "OK": 1253,
      "che": 1254,
      "u0091": 1255,
      "Ii": 1256,
      "count": 1257,
      "dX": 1258,
      "QT": 1259,
      "Vm": 1260,
      "ZD": 1261,
      "Cr": 1262,
      "gw": 1263,
      "air": 1264,
      "Ew": 1265,
      "redirect_": 1266,
      "iew": 1267,
      "branch": 1268,
      "PH": 1269,
      "==": 1270,
      "AS": 1271,
      "ngen": 1272,
      "redirect_s": 1273,
      "CK": 1274,
      "boll": 1275,
      "22brus": 1276,
      "u0014": 1277,
      "1728105": 1278,
      "rev": 1279,
      "uX": 1280,
      "b4": 1281,
      "_scid": 1282,
      "ban": 1283,
      "PR": 1284,
      "lob": 1285,
      "1c": 1286,
      "ys": 1287,
      "ant": 1288,
      "_9": 1289,
      "u0094": 1290,
      "hj": 1291,
      "Q2": 1292,
      "1e": 1293,
      "Int": 1294,
      "./": 1295,
      "referr": 1296,
      "Count": 1297,
      "dy": 1298,
      "Qx": 1299,
      "To": 1300,
      "=-": 1301,
      "lb": 1302,
      "1660": 1303,
      "20content": 1304,
      "3Dx": 1305,
      "GB": 1306,
      "po": 1307,
      "editable": 1308,
      "IjoxNz": 1309,
      "20contenteditable": 1310,
      "Ev": 1311,
      "eng": 1312,
      "20id": 1313,
      "u000e": 1314,
      "_session_id": 1315,
      "cale": 1316,
      "dF": 1317,
      "WJ": 1318,
      "1728868": 1319,
      "kR": 1320,
      "Ml": 1321,
      "LG": 1322,
      "iOi": 1323,
      "vt": 1324,
      "PK": 1325,
      "Rec": 1326,
      "\\\"},{\\\"": 1327,
      "u00a9": 1328,
      "search": 1329,
      "Ex": 1330,
      "VH": 1331,
      "my": 1332,
      "3D1": 1333,
      "Un": 1334,
      "823": 1335,
      "d7": 1336,
      "3L": 1337,
      "00000": 1338,
      "ivers": 1339,
      "en_": 1340,
      "inter": 1341,
      "RX": 1342,
      "197": 1343,
      "WV": 1344,
      "last": 1345,
      "bm_s": 1346,
      "sl": 1347,
      "811": 1348,
      "abled": 1349,
      "ME": 1350,
      "Bx": 1351,
      "Qz": 1352,
      "3g": 1353,
      "jc": 1354,
      "5a": 1355,
      "pm": 1356,
      "locale": 1357,
      "Ym": 1358,
      "DJ": 1359,
      "yo": 1360,
      "IjoxNzI4": 1361,
      "lobal": 1362,
      "72": 1363,
      "5f": 1364,
      "1663746": 1365,
      "price": 1366,
      "7b": 1367,
      "656": 1368,
      "u000b": 1369,
      "VG": 1370,
      "yt": 1371,
      "Bw": 1372,
      "QY": 1373,
      "V2": 1374,
      "5n": 1375,
      "8b": 1376,
      "ABG": 1377,
      "4f": 1378,
      "u0090": 1379,
      "../../../../": 1380,
      "aw": 1381,
      "XCJ": 1382,
      "OU": 1383,
      "wL": 1384,
      "HV": 1385,
      "u0012": 1386,
      "hn": 1387,
      "BF": 1388,
      "div": 1389,
      "Ne": 1390,
      "Ux": 1391,
      "2C0_": 1392,
      "u0018": 1393,
      "_cookie": 1394,
      "Zj": 1395,
      "Zk": 1396,
      "_client": 1397,
      "Oj": 1398,
      "referrer": 1399,
      "ZV": 1400,
      "3Atrue": 1401,
      "ft": 1402,
      "u0017": 1403,
      "iLCJ": 1404,
      "2e": 1405,
      "kh": 1406,
      "A6": 1407,
      "WW": 1408,
      "qs": 1409,
      "Yn": 1410,
      "wn": 1411,
      "abt": 1412,
      "Uz": 1413,
      "104": 1414,
      "u0097": 1415,
      "andbranch": 1416,
      "_at": 1417,
      "bollandbranch": 1418,
      "Uy": 1419,
      "_dy": 1420,
      "OptanonConsent": 1421,
      "ups": 1422,
      "N0": 1423,
      "|;": 1424,
      "Y2": 1425,
      "ance": 1426,
      "SAQAA": 1427,
      "0y": 1428,
      "SS": 1429,
      "location": 1430,
      "j1": 1431,
      "2520": 1432,
      "EI": 1433,
      "u22": 1434,
      "ength": 1435,
      "Value": 1436,
      "UJ": 1437,
      "HB": 1438,
      "201": 1439,
      "CD": 1440,
      "U5": 1441,
      "v1": 1442,
      "ve": 1443,
      "women": 1444,
      "V0": 1445,
      "Enabled": 1446,
      "Kw": 1447,
      "ba": 1448,
      "TV": 1449,
      "490": 1450,
      "xl": 1451,
      "u00a4": 1452,
      "html": 1453,
      "By": 1454,
      "geo": 1455,
      "TS": 1456,
      "_data": 1457,
      "json": 1458,
      "3b": 1459,
      "EN": 1460,
      "3R": 1461,
      "gx": 1462,
      "landingP": 1463,
      "cn": 1464,
      "u001d": 1465,
      "interaction": 1466,
      "6e": 1467,
      "urce": 1468,
      "adal": 1469,
      "__adal": 1470,
      "landingPath": 1471,
      "vV": 1472,
      "500": 1473,
      "us_mer": 1474,
      "us_merged": 1475,
      "wd": 1476,
      "dex": 1477,
      "Ey": 1478,
      "banan": 1479,
      "HY": 1480,
      "rr": 1481,
      "u009d": 1482,
      "isI": 1483,
      "2CC0002": 1484,
      "2CC0004": 1485,
      "bg": 1486,
      "ore": 1487,
      "groups": 1488,
      "17197": 1489,
      "datest": 1490,
      "isGpc": 1491,
      "ABGlobal": 1492,
      "isIABGlobal": 1493,
      "datestamp": 1494,
      "isGpcEnabled": 1495,
      "GA": 1496,
      "WQ": 1497,
      "ver": 1498,
      "Yy": 1499,
      "kq": 1500,
      "u00c0": 1501,
      "trip": 1502,
      "Iy": 1503,
      "LF": 1504,
      "VX": 1505,
      "190": 1506,
      "],\\\"": 1507,
      "65": 1508,
      "auth": 1509,
      "consentId": 1510,
      "interactionCount": 1511,
      "KQ": 1512,
      "u00a7": 1513,
      "Ul": 1514,
      "Zl": 1515,
      "u0093": 1516,
      "Flag": 1517,
      "YN": 1518,
      "117": 1519,
      "Zz": 1520,
      "AL": 1521,
      "MX": 1522,
      "bnb": 1523,
      "JJ": 1524,
      "GpcFlag": 1525,
      "browserGpcFlag": 1526,
      "_app": 1527,
      "MS": 1528,
      "fi": 1529,
      "A5": 1530,
      "MY": 1531,
      "eu": 1532,
      "Rz": 1533,
      "bQ": 1534,
      "xc": 1535,
      "2Fwww": 1536,
      "_n": 1537,
      "Rv": 1538,
      "LandingP": 1539,
      "LandingPage": 1540,
      "NotLandingPage": 1541,
      "Org": 1542,
      "ld": 1543,
      "GO": 1544,
      "pub": 1545,
      "u00d8": 1546,
      "d4": 1547,
      "u0013": 1548,
      "FZ": 1549,
      "NON": 1550,
      "ea": 1551,
      "_pro": 1552,
      "u00a2": 1553,
      "BV": 1554,
      "domain": 1555,
      "kn": 1556,
      "visit": 1557,
      "D_": 1558,
      "ait": 1559,
      "hw": 1560,
      "RD": 1561,
      "api": 1562,
      "i3": 1563,
      "u00a6": 1564,
      "of": 1565,
      "ZL": 1566,
      "isA": 1567,
      "0A": 1568,
      "MCV": 1569,
      "aiting": 1570,
      "u00e2": 1571,
      "UK": 1572,
      "728": 1573,
      "Pa": 1574,
      "={\\\"": 1575,
      "NONE": 1576,
      "6g": 1577,
      "JS": 1578,
      "T2": 1579,
      "Ado": 1580,
      "Intel": 1581,
      "onsent": 1582,
      "actory": 1583,
      "Adobe": 1584,
      "index": 1585,
      "40Adobe": 1586,
      "40AdobeOrg": 1587,
      "AMCV": 1588,
      "google": 1589,
      "7CNONE": 1590,
      "22bc": 1591,
      "Awaiting": 1592,
      "Reconsent": 1593,
      "AwaitingReconsent": 1594,
      "airbnb": 1595,
      "JM": 1596,
      "wW": 1597,
      "antity": 1598,
      "u00ff": 1599,
      "cm": 1600,
      "order": 1601,
      "My": 1602,
      "da": 1603,
      "GU": 1604,
      "u0098": 1605,
      "xR": 1606,
      "public": 1607,
      "528": 1608,
      "179": 1609,
      "ateg": 1610,
      "track": 1611,
      "YX": 1612,
      "SI": 1613,
      "nike": 1614,
      "k0": 1615,
      "9d": 1616,
      "ort": 1617,
      "ty": 1618,
      "GMT": 1619,
      "GP": 1620,
      "token": 1621,
      "pq": 1622,
      "4F": 1623,
      "7CMCAA": 1624,
      "bananare": 1625,
      "sr": 1626,
      "3D16": 1627,
      "quantity": 1628,
      "AKA": 1629,
      "_A2": 1630,
      "one": 1631,
      "RR": 1632,
      "pla": 1633,
      "bananarepublic": 1634,
      "TO": 1635,
      "AI": 1636,
      "VU": 1637,
      "WZ": 1638,
      "SE": 1639,
      "cB": 1640,
      "TJ": 1641,
      "995": 1642,
      "~'": 1643,
      "106": 1644,
      "cj": 1645,
      "SP": 1646,
      "dk": 1647,
      "xb18": 1648,
      "jg": 1649,
      "Vk": 1650,
      "8C": 1651,
      "2024_": 1652,
      "PE": 1653,
      "u0092": 1654,
      "3X": 1655,
      "7a": 1656,
      "_en": 1657,
      "u0019": 1658,
      "Qy": 1659,
      "_ab": 1660,
      "pl": 1661,
      "MB": 1662,
      "eG": 1663,
      "wid": 1664,
      "AKA_A2": 1665,
      "Tn": 1666,
      "480": 1667,
      "u00a1": 1668,
      "LO": 1669,
      "imation": 1670,
      "1925": 1671,
      "visor": 1672,
      "172096": 1673,
      "Cb": 1674,
      "advisor": 1675,
      "TW": 1676,
      "169": 1677,
      "dn": 1678,
      "17282057": 1679,
      "tripadvisor": 1680,
      "_bm": 1681,
      "CP": 1682,
      "Mn": 1683,
      "og": 1684,
      "::": 1685,
      "u00ca": 1686,
      "2l": 1687,
      "AU": 1688,
      "TI": 1689,
      "Ijoi": 1690,
      "u008d": 1691,
      "aI": 1692,
      "Rm": 1693,
      "arg": 1694,
      "Mq": 1695,
      "d8": 1696,
      "hy": 1697,
      "u00f0": 1698,
      "QB": 1699,
      "3f": 1700,
      "1728567": 1701,
      "u0088": 1702,
      "Yj": 1703,
      "page_": 1704,
      "876": 1705,
      "col": 1706,
      "wor": 1707,
      "1719747": 1708,
      "_tt": 1709,
      "ib": 1710,
      "2C1": 1711,
      "Jv": 1712,
      "u00c9": 1713,
      "qk": 1714,
      "E_": 1715,
      "Close": 1716,
      "16624": 1717,
      "Nk": 1718,
      "wz": 1719,
      "NV": 1720,
      "Ys": 1721,
      "1h": 1722,
      "aX": 1723,
      "|||;": 1724,
      "Eg": 1725,
      "u001c": 1726,
      "device": 1727,
      "Closed": 1728,
      "u00d4": 1729,
      "Box": 1730,
      "_ss": 1731,
      "u00c4": 1732,
      "v2": 1733,
      "A9": 1734,
      "ress": 1735,
      "0J": 1736,
      "BD": 1737,
      "isAnon": 1738,
      "22alert": 1739,
      "22confirm": 1740,
      "22prompt": 1741,
      "bX": 1742,
      "nav": 1743,
      "FD": 1744,
      "jy": 1745,
      "sH": 1746,
      "u0082": 1747,
      "_type": 1748,
      "u0016": 1749,
      "Ca": 1750,
      "2CC0003": 1751,
      "ertBox": 1752,
      "OptanonAl": 1753,
      "ertBoxClosed": 1754,
      "OptanonAlertBoxClosed": 1755,
      "__cq": 1756,
      "20t": 1757,
      "V9": 1758,
      "cr": 1759,
      "_st": 1760,
      "u009b": 1761,
      ",,": 1762,
      "factory": 1763,
      "LD": 1764,
      "3x": 1765,
      "f1": 1766,
      "into": 1767,
      "Macinto": 1768,
      "Macintosh": 1769,
      "NO": 1770,
      "Q1": 1771,
      "try": 1772,
      "ition": 1773,
      "_un": 1774,
      "E6": 1775,
      "KI": 1776,
      "u001e": 1777,
      "ans": 1778,
      "3N": 1779,
      "506": 1780,
      "u00e1": 1781,
      "Q4": 1782,
      "M2": 1783,
      "account": 1784,
      "1759": 1785,
      "dl": 1786,
      "Ly": 1787,
      "3m": 1788,
      "Mm": 1789,
      "Uk": 1790,
      "Pz": 1791,
      "hc": 1792,
      "E5": 1793,
      "isAnonUser": 1794,
      "u00d9": 1795,
      "15_7": 1796,
      "10_15_7": 1797,
      "Jz": 1798,
      "22price": 1799,
      "9E": 1800,
      "2022": 1801,
      "253D": 1802,
      "Re": 1803,
      "u0084": 1804,
      "u00c8": 1805,
      "I8": 1806,
      "Ow": 1807,
      "YS": 1808,
      "22g": 1809,
      "u00e0": 1810,
      "HL": 1811,
      "u009a": 1812,
      "x7": 1813,
      "u0087": 1814,
      "u00ed": 1815,
      "u00b0": 1816,
      "As": 1817,
      "u0086": 1818,
      "17282084": 1819,
      "_sale": 1820,
      "client": 1821,
      "AD": 1822,
      "EG": 1823,
      "u00ad": 1824,
      "22quantity": 1825,
      "ust": 1826,
      "1920": 1827,
      "u00ac": 1828,
      "u001b": 1829,
      "u0081": 1830,
      "u00ec": 1831,
      "__t": 1832,
      "Oct": 1833,
      "qg": 1834,
      "vU": 1835,
      "3V": 1836,
      "pbjs_": 1837,
      "22on_sale": 1838,
      "u00e8": 1839,
      "_cl": 1840,
      "U1": 1841,
      "Gl": 1842,
      "256": 1843,
      "Jy": 1844,
      "ZF": 1845,
      "137": 1846,
      "segs": 1847,
      "Rl": 1848,
      "_1": 1849,
      "coll": 1850,
      "Ta": 1851,
      "iOj": 1852,
      "J5": 1853,
      "Yw": 1854,
      "SH": 1855,
      "9D": 1856,
      "Uni": 1857,
      "u00be": 1858,
      "MF": 1859,
      "u00b9": 1860,
      "men": 1861,
      "CF": 1862,
      "RE": 1863,
      "hB": 1864,
      "Zg": 1865,
      "arity": 1866,
      "TQ": 1867,
      "u001f": 1868,
      "source": 1869,
      "fs_": 1870,
      "sq": 1871,
      "u009f": 1872,
      "CB": 1873,
      "e5": 1874,
      "AO": 1875,
      "Rn": 1876,
      "x0": 1877,
      "u008f": 1878,
      "animation": 1879,
      "gmail": 1880,
      "VF": 1881,
      "Um": 1882,
      "XS": 1883,
      "pV": 1884,
      "u00ce": 1885,
      "Ix": 1886,
      "UW": 1887,
      "u00d0": 1888,
      "u00c1": 1889,
      "sb": 1890,
      "u00dc": 1891,
      "use": 1892,
      "kZ": 1893,
      "uff0": 1894,
      "Mw": 1895,
      "ry": 1896,
      "u00c2": 1897,
      "{\\\\": 1898,
      "u00e5": 1899,
      "e8": 1900,
      "dia": 1901,
      "u0096": 1902,
      "24837": 1903,
      "1728818656": 1904,
      "0Q": 1905,
      "O6": 1906,
      "uK": 1907,
      "_abck": 1908,
      "bm_sz": 1909,
      "u00f6": 1910,
      "ategory": 1911,
      "_0": 1912,
      "LH": 1913,
      "RK": 1914,
      "u00d1": 1915,
      "list": 1916,
      "204": 1917,
      "jpg": 1918,
      "trans": 1919,
      "eckout": 1920,
      "geolocation": 1921,
      "JG": 1922,
      "IN": 1923,
      "159": 1924,
      "\\\\\\\":{\\\\\\\"": 1925,
      "LC": 1926,
      "Zy": 1927,
      "8s": 1928,
      "17282055078": 1929,
      "tm": 1930,
      "u00cb": 1931,
      "1728206": 1932,
      "mac": 1933,
      "3S": 1934,
      "hb": 1935,
      "PS": 1936,
      "gr": 1937,
      "a1": 1938,
      "u00c6": 1939,
      "lkP": 1940,
      "macOS": 1941,
      "2000": 1942,
      "TD": 1943,
      "Ez": 1944,
      "u00f8": 1945,
      "ard": 1946,
      "vp": 1947,
      "7C1728": 1948,
      "d2": 1949,
      "ax": 1950,
      "Xl": 1951,
      "220": 1952,
      "968": 1953,
      "dw_": 1954,
      "u_": 1955,
      "u0089": 1956,
      "iq": 1957,
      "OG": 1958,
      "u00e6": 1959,
      "}\\\\": 1960,
      "567": 1961,
      "0b": 1962,
      "000000": 1963,
      "Pro": 1964,
      "Vj": 1965,
      "put": 1966,
      ")&": 1967,
      "gion": 1968,
      "u00ee": 1969,
      "At": 1970,
      "in_un": 1971,
      "dWlkP": 1972,
      "in_unauth": 1973,
      "1925b": 1974,
      "u00c5": 1975,
      "Ry": 1976,
      "tS": 1977,
      "als": 1978,
      "Yl": 1979,
      "u00b8": 1980,
      "u0085": 1981,
      "view": 1982,
      "D4D": 1983,
      "ZG": 1984,
      "uff0e": 1985,
      "_user": 1986,
      "_pin_unauth": 1987,
      "ustom": 1988,
      "u00de": 1989,
      "arget": 1990,
      "WD": 1991,
      "Cx": 1992,
      "683": 1993,
      "key": 1994,
      "NS": 1995,
      "5ae": 1996,
      "CG": 1997,
      "_domain": 1998,
      "ZT": 1999,
      "\\\"\\": 2000,
      "Jd": 2001,
      "u00b1": 2002,
      "u00e9": 2003,
      "Wk": 2004,
      "u00e4": 2005,
      "onse": 2006,
      "win": 2007,
      "u00ef": 2008,
      "YT": 2009,
      "ZI": 2010,
      "K7": 2011,
      "u00c3": 2012,
      "ug": 2013,
      "ZB": 2014,
      "C4": 2015,
      "ini": 2016,
      "=#": 2017,
      "22p": 2018,
      "Ay": 2019,
      "8P": 2020,
      "22token": 2021,
      "In0": 2022,
      "u00d6": 2023,
      "ang": 2024,
      "u00eb": 2025,
      "+(": 2026,
      "u00b5": 2027,
      "L6": 2028,
      "J9": 2029,
      "tk": 2030,
      "ket": 2031,
      "HW": 2032,
      "Zw": 2033,
      "ifi": 2034,
      "LS": 2035,
      "8c": 2036,
      "u00b3": 2037,
      "sw": 2038,
      "u008c": 2039,
      "u00bc": 2040,
      "E3": 2041,
      "640": 2042,
      "Jt": 2043,
      "py": 2044,
      "u008e": 2045,
      "4y": 2046,
      "Iml": 2047,
      "213": 2048,
      "Vo": 2049,
      "zaf": 2050,
      "m4": 2051,
      "u00d2": 2052,
      "u00db": 2053,
      "Vy": 2054,
      "u00fa": 2055,
      "u00d5": 2056,
      "qq": 2057,
      "1728567876": 2058,
      "Nl": 2059,
      "Y29": 2060,
      "IE": 2061,
      "tn": 2062,
      "Fk": 2063,
      "u00a3": 2064,
      "u00b6": 2065,
      "1N": 2066,
      "u00d3": 2067,
      "F8": 2068,
      "direct": 2069,
      "_name": 2070,
      "u00b2": 2071,
      "a55": 2072,
      "lC": 2073,
      "Tr": 2074,
      "PB": 2075,
      "u00f2": 2076,
      "1011": 2077,
      "u00f1": 2078,
      "u00e3": 2079,
      "u00012": 2080,
      "Rg": 2081,
      "II": 2082,
      "urr": 2083,
      "u00f9": 2084,
      "u00a5": 2085,
      "a2": 2086,
      "u00f4": 2087,
      "fQ": 2088,
      "Iw": 2089,
      "ed_": 2090,
      "zX": 2091,
      "u00ae": 2092,
      "_client_id": 2093,
      "ConstructorioID_client_id": 2094,
      "6v": 2095,
      "257": 2096,
      "==~": 2097,
      "ih": 2098,
      "u0083": 2099,
      "000000000000000000000000": 2100,
      "KZ": 2101,
      "res": 2102,
      "u00b4": 2103,
      "Wl": 2104,
      "PC": 2105,
      "Aj": 2106,
      "cp": 2107,
      "Jq": 2108,
      "u00dd": 2109,
      "u008b": 2110,
      "ak_bm": 2111,
      "000000000000000000000000000000": 2112,
      "ak_bmsc": 2113,
      "(\\": 2114,
      "int": 2115,
      "u00af": 2116,
      "u00cd": 2117,
      "_ms": 2118,
      "}\\": 2119,
      "abindex": 2120,
      "@\\": 2121,
      "u00bf": 2122,
      "1925b22": 2123,
      "bf": 2124,
      "20tabindex": 2125,
      "M4": 2126,
      "No": 2127,
      "dz": 2128,
      "490D4D": 2129,
      "1728205744": 2130,
      "It": 2131,
      "Hl": 2132,
      "Sho": 2133,
      "u007f": 2134,
      "Fd": 2135,
      "Ax": 2136,
      "u00b7": 2137,
      "sG": 2138,
      "Cj": 2139,
      "f3": 2140,
      "Iiwi": 2141,
      "u00bd": 2142,
      "u00cc": 2143,
      "1S": 2144,
      "7C0": 2145,
      "GSAQAA": 2146,
      "MJ": 2147,
      "223": 2148,
      "u008a": 2149,
      "5r": 2150,
      "u00e7": 2151,
      "Vz": 2152,
      "rq": 2153,
      "T1": 2154,
      "7899": 2155,
      "_cs_": 2156,
      "u00ab": 2157,
      "tsw": 2158,
      "DS": 2159,
      "cus": 2160,
      "cz": 2161,
      "1770": 2162,
      "_sctr": 2163,
      "u00ba": 2164,
      "stor": 2165,
      "Vt": 2166,
      "ename": 2167,
      "ky": 2168,
      "rew": 2169,
      "code": 2170,
      "u00fb": 2171,
      "Ug": 2172,
      "u00bb": 2173,
      "tf": 2174,
      "untry": 2175,
      "Nm": 2176,
      "ypename": 2177,
      "__typename": 2178,
      "u00ea": 2179,
      "pz": 2180,
      "1724": 2181,
      "U0": 2182,
      "dJ": 2183,
      "Rk": 2184,
      "././": 2185,
      "u00c7": 2186,
      "focus": 2187,
      "C2": 2188,
      "1H": 2189,
      "OW": 2190,
      "u00da": 2191,
      "LT": 2192,
      "8f": 2193,
      "ta": 2194,
      "u00f3": 2195,
      "hr": 2196,
      "UQ": 2197,
      "Nd": 2198,
      "u00cf": 2199,
      "bt": 2200,
      "mouse": 2201,
      "Z6": 2202,
      "k1": 2203,
      "ali": 2204,
      "cart": 2205,
      "jb": 2206,
      "dg": 2207,
      "499": 2208,
      "119": 2209,
      "360": 2210,
      "u00f7": 2211,
      "ink": 2212,
      "Z0": 2213,
      "_referrer": 2214,
      "net": 2215,
      "xk": 2216,
      "350": 2217,
      "pass": 2218,
      "Jl": 2219,
      "`\\": 2220,
      "644": 2221,
      "asse": 2222,
      "u00022": 2223,
      "172405": 2224,
      "Ni": 2225,
      "value": 2226,
      "}}": 2227,
      "_uuid": 2228,
      "BI": 2229,
      "XX": 2230,
      "u00fe": 2231,
      "427": 2232,
      "GQ": 2233,
      "Eo": 2234,
      "VP": 2235,
      "hk": 2236,
      "hu": 2237,
      "tw": 2238,
      "e6d": 2239,
      "8y": 2240,
      "1q": 2241,
      "Name": 2242,
      "146": 2243,
      "110": 2244,
      "RP": 2245,
      "mar": 2246,
      "ZU": 2247,
      "Kj": 2248,
      "ix": 2249,
      "sponse": 2250,
      "Xk": 2251,
      "498": 2252,
      "QD": 2253,
      "end": 2254,
      "MID": 2255,
      "ZmF": 2256,
      "zaful": 2257,
      "ne": 2258,
      "windows": 2259,
      "20onmouse": 2260,
      "CO": 2261,
      "YD": 2262,
      "aliha": 2263,
      "u00fc": 2264,
      "LE": 2265,
      "517": 2266,
      "_4": 2267,
      "a55b": 2268,
      "zK": 2269,
      "7C3": 2270,
      "Gk": 2271,
      "hJ": 2272,
      "Ou": 2273,
      "ZK": 2274,
      "rg": 2275,
      "22l": 2276,
      "Bg": 2277,
      "Xn": 2278,
      "sm": 2279,
      "opt": 2280,
      "ra": 2281,
      "b1": 2282,
      "q0": 2283,
      "cess": 2284,
      "7e": 2285,
      "new": 2286,
      "122": 2287,
      "22a": 2288,
      "886": 2289,
      "CE": 2290,
      "VK": 2291,
      "bWF": 2292,
      "cid": 2293,
      "1797": 2294,
      "tp": 2295,
      "VD": 2296,
      "8k": 2297,
      "zk": 2298,
      "VE": 2299,
      "FR": 2300,
      "load": 2301,
      "IsIm": 2302,
      "Uj": 2303,
      "Y1": 2304,
      "u00fd": 2305,
      "VQ": 2306,
      "cs": 2307,
      "OX": 2308,
      "_M": 2309,
      "Bj": 2310,
      "stem": 2311,
      "gable": 2312,
      "draggable": 2313,
      "yw": 2314,
      "20draggable": 2315,
      "ns": 2316,
      "pre": 2317,
      "Ju": 2318,
      "22true": 2319,
      "aam": 2320,
      "utag_main__": 2321,
      "Cf": 2322,
      "Ik": 2323,
      "u00df": 2324,
      "jn": 2325,
      "H5E": 2326,
      "6394": 2327,
      "YAAQH5E": 2328,
      "cb": 2329,
      "MH": 2330,
      "227": 2331,
      "u00f5": 2332,
      "$\\": 2333,
      "lg": 2334,
      "passwd": 2335,
      "1G": 2336,
      "Sh": 2337,
      "Wy": 2338,
      "F6": 2339,
      "px": 2340,
      "ay": 2341,
      "!\\": 2342,
      "ify": 2343,
      "Yo": 2344,
      "603c": 2345,
      "rf": 2346,
      "far": 2347,
      "U9": 2348,
      "wall": 2349,
      "WR": 2350,
      "PjGSAQAA": 2351,
      "ZmFsc": 2352,
      "yQ": 2353,
      "farfetch": 2354,
      "nex": 2355,
      "Origin": 2356,
      "WE": 2357,
      "Jw": 2358,
      "Lo": 2359,
      "echo": 2360,
      "Nw": 2361,
      "5329": 2362,
      "revol": 2363,
      "2o": 2364,
      "Zn": 2365,
      "3Cstyle": 2366,
      "172887": 2367,
      "8J": 2368,
      "C00": 2369,
      "\\\":[\\\"": 2370,
      "cw": 2371,
      "hx": 2372,
      "activ": 2373,
      "revolve": 2374,
      "Az": 2375,
      "143": 2376,
      "b9d5": 2377,
      "vb": 2378,
      "U2": 2379,
      "wallet": 2380,
      "womens": 2381,
      "uest": 2382,
      "dd3d": 2383,
      "DY": 2384,
      "gz": 2385,
      "19e1": 2386,
      "6689": 2387,
      "xb19": 2388,
      "639460": 2389,
      "ZmFsc2U": 2390,
      "wT": 2391,
      "br16": 2392,
      "br19": 2393,
      "40639460": 2394,
      "prlb": 2395,
      "redirect_order": 2396,
      "redirect_sign": 2397,
      "24837603c": 2398,
      "5ae24837603c": 2399,
      "nextsw": 2400,
      "b9d540639460": 2401,
      "dd3db9d540639460": 2402,
      "19e1dd3db9d540639460": 2403,
      "19e1dd3db9d5406394605ae24837603c": 2404,
      "Of": 2405,
      "dG": 2406,
      "5F": 2407,
      "MLH": 2408,
      "ssue": 2409,
      "UO": 2410,
      "8D": 2411,
      "ney": 2412,
      "tro": 2413,
      "ZmFsc2Us": 2414,
      "QX": 2415,
      "1662447": 2416,
      "jit": 2417,
      "QF": 2418,
      "system": 2419,
      "nK": 2420,
      "jitney": 2421,
      "checkout": 2422,
      "Om": 2423,
      "Vis": 2424,
      "OH": 2425,
      "ql": 2426,
      "Yt": 2427,
      "AG": 2428,
      "2R": 2429,
      "brand": 2430,
      "1728107": 2431,
      "C8B": 2432,
      "shop": 2433,
      "vj": 2434,
      "_reset": 2435,
      "vl": 2436,
      "TX": 2437,
      "dc_": 2438,
      "A490D4D": 2439,
      "56910": 2440,
      "3BE1": 2441,
      "_scid_r": 2442,
      "_93BE1": 2443,
      "532956910": 2444,
      "C8B532956910": 2445,
      "_93BE1C8B532956910": 2446,
      "_93BE1C8B532956910A490D4D": 2447,
      "YQ": 2448,
      "0w": 2449,
      "2CC00": 2450,
      "Visit": 2451,
      "20style": 2452,
      "0t": 2453,
      "Vg": 2454,
      "6b": 2455,
      "Rj": 2456,
      "MA": 2457,
      "Lt": 2458,
      "3s": 2459,
      "3l": 2460,
      "3k": 2461,
      "length": 2462,
      "Lz": 2463,
      "PI": 2464,
      "NE": 2465,
      "X4": 2466,
      "==;": 2467,
      "2YWx": 2468,
      "rec": 2469,
      "pD": 2470,
      "BO": 2471,
      "940": 2472,
      "idW": 2473,
      "cCb": 2474,
      "HX": 2475,
      "_ScCb": 2476,
      "_ScCbts": 2477,
      "900": 2478,
      "Zq": 2479,
      "chema": 2480,
      ")\\": 2481,
      "VO": 2482,
      "secure": 2483,
      "217": 2484,
      "B7": 2485,
      "189": 2486,
      "_pv": 2487,
      "s2": 2488,
      "issue": 2489,
      "event_data": 2490,
      "b4d": 2491,
      "p9": 2492,
      "Url": 2493,
      "805": 2494,
      "X2": 2495,
      "Yg": 2496,
      "YI": 2497,
      "rT": 2498,
      "HP": 2499,
      "o1": 2500,
      "%\\": 2501,
      "Oy": 2502,
      "La": 2503,
      "Z4": 2504,
      "93c": 2505,
      "Hr": 2506,
      "e0x": 2507,
      "Mx": 2508,
      "v4": 2509,
      "Vr": 2510,
      "17288": 2511,
      "RQ": 2512,
      "Cn": 2513,
      "prod": 2514,
      "bS": 2515,
      "not": 2516,
      "7z": 2517,
      "I0": 2518,
      "request": 2519,
      "Qu": 2520,
      "fu": 2521,
      "uEF": 2522,
      "cg": 2523,
      "ings": 2524,
      "\\\":[{\\\"": 2525,
      "0h": 2526,
      "11_": 2527,
      "7d": 2528,
      "B6": 2529,
      "p2": 2530,
      "05T": 2531,
      "HJ": 2532,
      "Ye": 2533,
      "Ll": 2534,
      "fst": 2535,
      "MTkw": 2536,
      "SION": 2537,
      "bK": 2538,
      "JC": 2539,
      "UE": 2540,
      "file": 2541,
      "cv": 2542,
      "browse": 2543,
      "pN": 2544,
      "nX": 2545,
      "#/": 2546,
      "collect": 2547,
      "3a": 2548,
      "4Z": 2549,
      "504": 2550,
      "aL": 2551,
      "/%": 2552,
      "1080": 2553,
      "_e": 2554,
      "SD": 2555,
      "837": 2556,
      "290": 2557,
      "und": 2558,
      "CI6ZmFsc2Us": 2559,
      "http": 2560,
      "jz": 2561,
      "Vx": 2562,
      "c5d": 2563,
      "vo": 2564,
      "sessionId": 2565,
      "C0001": 2566,
      "Lb": 2567,
      "ESSION": 2568,
      "0T": 2569,
      "3w": 2570,
      "VT": 2571,
      "dd4": 2572,
      "UH": 2573,
      "iOiJ": 2574,
      "eL": 2575,
      "UTF": 2576,
      "17287": 2577,
      "995257": 2578,
      "jcrew": 2579,
      "N1": 2580,
      "Tm": 2581,
      "ial": 2582,
      "&\\": 2583,
      "input": 2584,
      "175964": 2585,
      "\\\":\\\"/": 2586,
      "NW": 2587,
      "ace": 2588,
      "pdat": 2589,
      "NB": 2590,
      "9C": 2591,
      "wg": 2592,
      "fO": 2593,
      "HM": 2594,
      "_o": 2595,
      "transition": 2596,
      "aj": 2597,
      "118": 2598,
      "IP": 2599,
      "....": 2600,
      "Kt": 2601,
      "hz": 2602,
      "\"{\\\"": 2603,
      "hi": 2604,
      "Wj": 2605,
      "ersist": 2606,
      "VZ": 2607,
      "FE": 2608,
      "pB": 2609,
      "fs_uid": 2610,
      "Sk": 2611,
      "2C0_1797": 2612,
      "NR": 2613,
      "uL": 2614,
      "ustomer": 2615,
      "lf": 2616,
      "#\\": 2617,
      ",\\": 2618,
      "Ijoy": 2619,
      "bWFc": 2620,
      "i8": 2621,
      "ALNI": 2622,
      "7c": 2623,
      "3o": 2624,
      "102": 2625,
      "Y4": 2626,
      "ly": 2627,
      "storage": 2628,
      "b13": 2629,
      "Yx": 2630,
      "_sho": 2631,
      "I1": 2632,
      "ner": 2633,
      "_se": 2634,
      "\\\"},\\\"": 2635,
      "AEC": 2636,
      "22s": 2637,
      "Uw": 2638,
      "mf": 2639,
      "CR": 2640,
      "uu": 2641,
      ":\\": 2642,
      "r0": 2643,
      "6478": 2644,
      "ZQ": 2645,
      "-\\": 2646,
      "4fe": 2647,
      "cIj": 2648,
      "zf": 2649,
      "Sa": 2650,
      "2cd": 2651,
      "MW": 2652,
      "eyJ1": 2653,
      "1wi": 2654,
      "xcIml": 2655,
      "1s": 2656,
      "591": 2657,
      "iversal": 2658,
      "_att": 2659,
      "cIjpc": 2660,
      "G5": 2661,
      "ie1wi": 2662,
      "UF": 2663,
      "lick": 2664,
      "4e": 2665,
      "9In0": 2666,
      "__attentive_id": 2667,
      "7515": 2668,
      "XCJ2YWx": 2669,
      "MCxcIml": 2670,
      "wibWFc": 2671,
      "Ijoie1wi": 2672,
      "FwidW": 2673,
      "login": 2674,
      "uXCI6ZmFsc2Us": 2675,
      "XCJ9In0": 2676,
      "Y29c": 2677,
      "MTkwMCxcIml": 2678,
      "IjoyMTkwMCxcIml": 2679,
      "eyJ1Ijoie1wi": 2680,
      "_attn_": 2681,
      "XCJ2YWxcIjpc": 2682,
      "wibWFcIjoyMTkwMCxcIml": 2683,
      "FwidW9c": 2684,
      "uXCI6ZmFsc2UsXCJ2YWxcIjpc": 2685,
      "eyJ1Ijoie1wiY29c": 2686,
      "wibWFcIjoyMTkwMCxcImluXCI6ZmFsc2UsXCJ2YWxcIjpc": 2687,
      "47c3": 2688,
      "_updat": 2689,
      "port": 2690,
      "_region": 2691,
      "2x": 2692,
      "Sun": 2693,
      "55ef": 2694,
      "_dv": 2695,
      "e689": 2696,
      "a6c5d": 2697,
      "6e55ef": 2698,
      "e6d7515": 2699,
      "system32": 2700,
      "6e55efa5": 2701,
      "e6d7515a6c5d": 2702,
      "569": 2703,
      "FPID": 2704,
      "__attentive_dv": 2705,
      "boot": 2706,
      "ti": 2707,
      "0R": 2708,
      "Pl": 2709,
      "Ma": 2710,
      "=*": 2711,
      "HC": 2712,
      "pE": 2713,
      "Mi": 2714,
      "Ov": 2715,
      "pe": 2716,
      "9e": 2717,
      "Ql": 2718,
      "is_": 2719,
      "_updated": 2720,
      "gwS": 2721,
      "TUR": 2722,
      "hC": 2723,
      "qe": 2724,
      "Nr": 2725,
      "LCJ": 2726,
      "1728567899": 2727,
      "*\\": 2728,
      "__attentive_pv": 2729,
      "Gx": 2730,
      "__attentive_ss": 2731,
      "__attentive_ss_referrer": 2732,
      "953": 2733,
      "8083": 2734,
      "d3": 2735,
      "pify": 2736,
      "LI": 2737,
      "Vi": 2738,
      "ZP": 2739,
      "Product": 2740,
      "category": 2741,
      "country": 2742,
      "'\\": 2743,
      "lass": 2744,
      "SID": 2745,
      "_shopify": 2746,
      "ingValue": 2747,
      "3B16": 2748,
      "f2": 2749,
      "num": 2750,
      "He": 2751,
      "CA": 2752,
      "AAAAAAAA": 2753,
      "FwidW9cIjoxNzI4": 2754,
      "eyJ1Ijoie1wiY29cIjoxNzI4": 2755,
      "t2": 2756,
      "Fz": 2757,
      "UNb": 2758,
      "3Ddirect": 2759,
      "3BSG": 2760,
      "855": 2761,
      "1197": 2762,
      "uuid": 2763,
      "b5": 2764,
      "sg": 2765,
      "uF0": 2766,
      "vd": 2767,
      "ava": 2768,
      "color": 2769,
      "1728205508": 2770,
      "=\\": 2771,
      "ender": 2772,
      "Qr": 2773,
      "i2": 2774,
      "5699": 2775,
      "u2216": 2776,
      "u2215": 2777,
      "uF025": 2778,
      "kza": 2779,
      "06689": 2780,
      "ABTa": 2781,
      "1728205506689": 2782,
      "ABTasty": 2783,
      "4C": 2784,
      "src": 2785,
      "172820550777": 2786,
      "6gO": 2787,
      "28not": 2788,
      "2520set": 2789,
      "__adal_c": 2790,
      "_locale": 2791,
      "__exp": 2792,
      "4910": 2793,
      "stringValue": 2794,
      "onea_": 2795,
      "__exponea_": 2796,
      "auto": 2797,
      "Ny": 2798,
      "511": 2799,
      "ka9": 2800,
      "Nt": 2801,
      "89UNb": 2802,
      "1_kza": 2803,
      "gpdj": 2804,
      "ewka9": 2805,
      "HSmy": 2806,
      "6gO89UNb": 2807,
      "1_kzaHSmy": 2808,
      "gpdjgwS": 2809,
      "ewka9gpdjgwS": 2810,
      "6gO89UNb1_kzaHSmy": 2811,
      "6gO89UNb1_kzaHSmyewka9gpdjgwS": 2812,
      "198d": 2813,
      "XW": 2814,
      "373": 2815,
      "c211ef": 2816,
      "56756": 2817,
      "8083c211ef": 2818,
      "11968": 2819,
      "1196856756": 2820,
      "m1Ne": 2821,
      "j9": 2822,
      "oZ": 2823,
      "Yk": 2824,
      "Tg": 2825,
      "8457": 2826,
      "bk": 2827,
      "9x": 2828,
      "Af": 2829,
      "P8": 2830,
      "b_": 2831,
      ";\\": 2832,
      "Vh": 2833,
      "B78": 2834,
      "bL": 2835,
      "Gw": 2836,
      "G9": 2837,
      "An": 2838,
      "bj": 2839,
      "prev": 2840,
      "eck": 2841,
      "YZ": 2842,
      "07c8": 2843,
      "05T05": 2844,
      "4248": 2845,
      "44a0": 2846,
      "2cd2b": 2847,
      "bdd4": 2848,
      "RJ": 2849,
      "f95699": 2850,
      "44a02cd2b": 2851,
      "f9569989": 2852,
      "44a02cd2b4fe": 2853,
      "M0": 2854,
      "Qw": 2855,
      ".\\": 2856,
      "_mi": 2857,
      "dv": 2858,
      "hh": 2859,
      "A27": 2860,
      "Cw": 2861,
      "3Dalert": 2862,
      "629": 2863,
      "0e0": 2864,
      "6x": 2865,
      "Unique": 2866,
      "53528": 2867,
      "trol": 2868,
      "845753528": 2869,
      "8457535282": 2870,
      "F4910": 2871,
      "80EB": 2872,
      "DF8457535282": 2873,
      "C9A27": 2874,
      "AECDF8457535282": 2875,
      "B7880EB": 2876,
      "F4910B7880EB": 2877,
      "C9A27AECDF8457535282": 2878,
      "F4910B7880EBC9A27AECDF8457535282": 2879,
      "GV": 2880,
      "205": 2881,
      "uEFC8": 2882,
      "EV": 2883,
      "829": 2884,
      "TK": 2885,
      "bed": 2886,
      "zc": 2887,
      "<\\": 2888,
      "sha": 2889,
      "=*;": 2890,
      "7C17": 2891,
      "Qj": 2892,
      "2024_11_": 2893,
      "FwAA": 2894,
      "17283770": 2895,
      "\\\":\\\"\\\",\\\"": 2896,
      "_m": 2897,
      "frame": 2898,
      "245": 2899,
      "hL": 2900,
      "KT": 2901,
      "ging": 2902,
      "uw": 2903,
      "zP": 2904,
      "ize": 2905,
      "Ut": 2906,
      "ies": 2907,
      "22at": 2908,
      "Y0": 2909,
      "bx": 2910,
      "^\\": 2911,
      "22gp": 2912,
      "GL": 2913,
      "AID": 2914,
      "FO": 2915,
      "zy": 2916,
      "8B": 2917,
      "Mg": 2918,
      "previo": 2919,
      "Aq": 2920,
      "GR": 2921,
      "ency": 2922,
      "B1": 2923,
      "Bag": 2924,
      "377": 2925,
      "426": 2926,
      "logging": 2927,
      "8o": 2928,
      "925": 2929,
      "4r": 2930,
      "3Dconfirm": 2931,
      "3Dprompt": 2932,
      ";-": 2933,
      "\\\\\\": 2934,
      "N2": 2935,
      "Wr": 2936,
      "107": 2937,
      "IL": 2938,
      "Ao": 2939,
      "AE": 2940,
      "Ja": 2941,
      "er_": 2942,
      "665": 2943,
      "2D": 2944,
      "Token": 2945,
      "215": 2946,
      "Ng": 2947,
      "4o": 2948,
      "IG": 2949,
      "d1": 2950,
      "Ft": 2951,
      "+\\": 2952,
      "648": 2953,
      "5o": 2954,
      "Jf": 2955,
      "UP": 2956,
      "230": 2957,
      "838": 2958,
      "sub": 2959,
      "yg": 2960,
      "|\\": 2961,
      "dp": 2962,
      ">\\": 2963,
      "KG": 2964,
      "347": 2965,
      "7L": 2966,
      "Bk": 2967,
      "294": 2968,
      "NV1": 2969,
      "3817": 2970,
      "qF": 2971,
      "5419": 2972,
      "Pr": 2973,
      "411": 2974,
      "Sf": 2975,
      "7CvV": 2976,
      "7CvVersion": 2977,
      "7CMCMID": 2978,
      "ics": 2979,
      "7CMCOP": 2980,
      "AMCVS": 2981,
      "TOUT": 2982,
      "7CMCOPTOUT": 2983,
      "170": 2984,
      "7CMCAID": 2985,
      "uc": 2986,
      "A3": 2987,
      "5k": 2988,
      "rm": 2989,
      "YB": 2990,
      "244": 2991,
      "8vM": 2992,
      "eg": 2993,
      "470": 2994,
      "246": 2995,
      "729": 2996,
      "115": 2997,
      "JX": 2998,
      "Mt": 2999,
      "1839": 3000,
      "f5": 3001,
      "ZR": 3002,
      "D3": 3003,
      "25253A": 3004,
      "fd11": 3005,
      "Rs": 3006,
      "82d9": 3007,
      "Jj": 3008,
      "15T": 3009,
      "]\\": 3010,
      "10614": 3011,
      "/\\": 3012,
      "tion": 3013,
      "UD": 3014,
      "1728105823": 3015,
      "1925b2244": 3016,
      "1728710614": 3017,
      "82d911ef": 3018,
      "Vw": 3019,
      "hq": 3020,
      "IDTS": 3021,
      "7CMCIDTS": 3022,
      "plain": 3023,
      "7G": 3024,
      "bG": 3025,
      "stamp": 3026,
      "TM": 3027,
      "7CMCAAMB": 3028,
      "7CMCAAMLH": 3029,
      "Q0": 3030,
      "9C6": 3031,
      "U3": 3032,
      "TF": 3033,
      "9y": 3034,
      "CH": 3035,
      "dist": 3036,
      "dj0y": 3037,
      "__cq_": 3038,
      "nx": 3039,
      "Gi": 3040,
      "h0": 3041,
      "ppingBag": 3042,
      "dis": 3043,
      "1663": 3044,
      "KF": 3045,
      "dx": 3046,
      "ls": 3047,
      "Ig": 3048,
      "164": 3049,
      "Yc": 3050,
      "JA": 3051,
      "alyt": 3052,
      "914": 3053,
      "2CC0001": 3054,
      "Mh": 3055,
      "17596418": 3056,
      "Rh": 3057,
      "LFwibWFcIjoyMTkwMCxcImluXCI6ZmFsc2UsXCJ2YWxcIjpc": 3058,
      "7C5": 3059,
      "240": 3060,
      "AW": 3061,
      "149": 3062,
      "~\\": 3063,
      "=~-": 3064,
      "20ondrag": 3065,
      "mul": 3066,
      "175": 3067,
      "Kf": 3068,
      "1D": 3069,
      "inct": 3070,
      "distinct": 3071,
      "_persist": 3072,
      "distinct_id": 3073,
      "E0": 3074,
      "loop": 3075,
      "wD": 3076,
      "424": 3077,
      "ymo": 3078,
      "pn": 3079,
      "726": 3080,
      "1y": 3081,
      "L3": 3082,
      "XM": 3083,
      "9419": 3084,
      "7656": 3085,
      "22distinct_id": 3086,
      "22bc_persist": 3087,
      "22bc_persist_updated": 3088,
      "1625": 3089,
      "8e": 3090,
      "andard": 3091,
      "3A1728568": 3092,
      "4w": 3093,
      "Y3": 3094,
      "14728": 3095,
      "1728205514728": 3096,
      "1807656": 3097,
      "5069419": 3098,
      "54191807656": 3099,
      "506941954191807656": 3100,
      "453": 3101,
      "EH": 3102,
      "QS": 3103,
      "_cco": 3104,
      "__attentive_cco": 3105,
      "en_US": 3106,
      "22C": 3107,
      "8x": 3108,
      "ka": 3109,
      "E2": 3110,
      "RS": 3111,
      "kx": 3112,
      "5L": 3113,
      "057": 3114,
      "6o": 3115,
      "1804": 3116,
      "ZSI6": 3117,
      "enc": 3118,
      "End": 3119,
      "Iv": 3120,
      "Cz": 3121,
      "Ji": 3122,
      "\\\":\\\"{\\\\\\\"": 3123,
      "129910": 3124,
      "erc": 3125,
      "Tj": 3126,
      "\\\"};": 3127,
      "/?": 3128,
      "9w": 3129,
      "[\\": 3130,
      "MK": 3131,
      "u7": 3132,
      "_ttp": 3133,
      "18391804": 3134,
      "380": 3135,
      "yC": 3136,
      "aM": 3137,
      "Lw": 3138,
      "0m": 3139,
      "analyt": 3140,
      "109": 3141,
      "Jx": 3142,
      "FG": 3143,
      "{\\": 3144,
      "ery": 3145,
      "AP": 3146,
      "char": 3147,
      "},\\\\\\\"": 3148,
      "pf": 3149,
      "Qn": 3150,
      "Wo": 3151,
      "4Q": 3152,
      "cX": 3153,
      "736": 3154,
      "219": 3155,
      "A1D": 3156,
      "Jm": 3157,
      "FA": 3158,
      "K5": 3159,
      "Wxl": 3160,
      "3D16995257": 3161,
      "uO": 3162,
      "Fa": 3163,
      "dq": 3164,
      "3Anull": 3165,
      "185": 3166,
      "=../../../../": 3167,
      "tl": 3168,
      "art_t": 3169,
      "LFwidW9cIjoxNzI4": 3170,
      "VW": 3171,
      "b92f": 3172,
      "_enable": 3173,
      "Hj": 3174,
      "369": 3175,
      "_response": 3176,
      "java": 3177,
      "zr": 3178,
      "utm": 3179,
      "jF": 3180,
      "El": 3181,
      "141": 3182,
      "KC": 3183,
      "max": 3184,
      "_tt_enable": 3185,
      "_tt_enable_cookie": 3186,
      "status": 3187,
      "2e0x": 3188,
      "gh": 3189,
      "5z": 3190,
      "Ms": 3191,
      "BT": 3192,
      "6668": 3193,
      "media": 3194,
      "BW": 3195,
      "SK": 3196,
      "service": 3197,
      "IyZD": 3198,
      "646": 3199,
      "drivers": 3200,
      "D2": 3201,
      "114": 3202,
      "s_id": 3203,
      "charset": 3204,
      "E4": 3205,
      "RW": 3206,
      "Tw": 3207,
      "design": 3208,
      "I3": 3209,
      "LV": 3210,
      "Ht": 3211,
      "_v": 3212,
      "?\\": 3213,
      "api_domain": 3214,
      "Length": 3215,
      "Nn": 3216,
      "0a": 3217,
      "IaI": 3218,
      "235": 3219,
      "anonymo": 3220,
      "kj": 3221,
      "clarity": 3222,
      "FL": 3223,
      "111": 3224,
      "627": 3225,
      "uP": 3226,
      "012": 3227,
      "F7": 3228,
      "WJj": 3229,
      "ata": 3230,
      "mr": 3231,
      "Ge": 3232,
      "k2": 3233,
      "IT": 3234,
      "p7": 3235,
      "_gid": 3236,
      "9cb": 3237,
      "nn": 3238,
      "Z2": 3239,
      "EO": 3240,
      "guest": 3241,
      "_cart": 3242,
      "17286632": 3243,
      "WX": 3244,
      "cAA": 3245,
      "ccf": 3246,
      "work": 3247,
      "NjA": 3248,
      "FW": 3249,
      "items": 3250,
      "938": 3251,
      "2343": 3252,
      "166020": 3253,
      "du": 3254,
      "2Fcollect": 3255,
      "1663746728": 3256,
      "next": 3257,
      "0j": 3258,
      "RF": 3259,
      "NjAzO": 3260,
      "Uo": 3261,
      "_NjAzO": 3262,
      "NDIyZD": 3263,
      "WJjNDIyZD": 3264,
      "1663746728_NjAzO": 3265,
      "WJjNDIyZDEy": 3266,
      "1663746728_NjAzOWJjNDIyZDEy": 3267,
      "DL": 3268,
      "3Cinput": 3269,
      "Cl": 3270,
      "fE": 3271,
      "aa0": 3272,
      "qr": 3273,
      "Com": 3274,
      "k4": 3275,
      "sn": 3276,
      "anel": 3277,
      "../%": 3278,
      "2024_10_": 3279,
      "mb": 3280,
      "hs": 3281,
      "pI": 3282,
      "obo": 3283,
      "JB": 3284,
      "_clsk": 3285,
      "iV": 3286,
      "353": 3287,
      "NK": 3288,
      "40gmail": 3289,
      "uV": 3290,
      "42F": 3291,
      "Code": 3292,
      "HD": 3293,
      "SYN": 3294,
      "etur": 3295,
      "Ct": 3296,
      "209": 3297,
      "214": 3298,
      "xRun": 3299,
      "\\\"],\\\"": 3300,
      "products": 3301,
      "Rt": 3302,
      "Zf": 3303,
      "zix7": 3304,
      "16602077": 3305,
      "YP": 3306,
      "QsH": 3307,
      "2_": 3308,
      "XP": 3309,
      "7C2": 3310,
      "Standard": 3311,
      "_brand": 3312,
      "FS": 3313,
      "Iq": 3314,
      "9a": 3315,
      "os": 3316,
      "par": 3317,
      "I2": 3318,
      "istory": 3319,
      "MZ": 3320,
      "Vn": 3321,
      "4779": 3322,
      "2d": 3323,
      "market": 3324,
      "_cst": 3325,
      "598": 3326,
      "On": 3327,
      "LPQsH": 3328,
      "zix7LPQsH": 3329,
      "zix7LPQsHA": 3330,
      "RB": 3331,
      "urrency": 3332,
      "7x": 3333,
      "Ed": 3334,
      "JD": 3335,
      "243": 3336,
      "17282060": 3337,
      "none": 3338,
      "qL": 3339,
      "out": 3340,
      "ads": 3341,
      "CSOP": 3342,
      "7C411": 3343,
      "7CMCSYN": 3344,
      "7CMCSYNCSOP": 3345,
      "pop": 3346,
      "YAAQXJ": 3347,
      "width": 3348,
      "YAAQXJ42F": 3349,
      "by": 3350,
      "xG": 3351,
      "va": 3352,
      "1_11": 3353,
      "e_": 3354,
      "ESSIONID": 3355,
      "YU": 3356,
      "d3d": 3357,
      "17286633": 3358,
      "7y": 3359,
      "WS": 3360,
      "hg": 3361,
      "YAS": 3362,
      "cst": 3363,
      "825": 3364,
      "Bo": 3365,
      "Add": 3366,
      "vX": 3367,
      "Ek": 3368,
      "NIC": 3369,
      "_4_s": 3370,
      "f4": 3371,
      "Kb": 3372,
      "1w": 3373,
      "473": 3374,
      "ORGA": 3375,
      "ORGANIC": 3376,
      "hD": 3377,
      "hwM": 3378,
      "258": 3379,
      "sz": 3380,
      "ye": 3381,
      "F9": 3382,
      "CSAQAA": 3383,
      "1U": 3384,
      "UserId": 3385,
      "redesign": 3386,
      "dep": 3387,
      "am00": 3388,
      "Y9": 3389,
      "hE": 3390,
      "Ir": 3391,
      ".../": 3392,
      "u0": 3393,
      "cdn_": 3394,
      "Il": 3395,
      "cdn_exp": 3396,
      "t6": 3397,
      "assets": 3398,
      "Mb": 3399,
      "_track": 3400,
      "b0d": 3401,
      "check": 3402,
      "Tq": 3403,
      "aQ": 3404,
      "ary": 3405,
      "Lg": 3406,
      "ian": 3407,
      "JSESSIONID": 3408,
      "YAAQH5EkF": 3409,
      "1x": 3410,
      "_ses": 3411,
      "pid": 3412,
      "plp": 3413,
      "abb": 3414,
      "R2": 3415,
      "ln": 3416,
      "Vq": 3417,
      "22m": 3418,
      "_clck": 3419,
      "Me": 3420,
      "349": 3421,
      "Hz": 3422,
      "kJ": 3423,
      "459": 3424,
      "Visitor": 3425,
      "E7": 3426,
      "previous_": 3427,
      "KX": 3428,
      "VI": 3429,
      "ade": 3430,
      "6bb": 3431,
      "Dn": 3432,
      "_email": 3433,
      "Cg": 3434,
      "store": 3435,
      "N9": 3436,
      "xpanel": 3437,
      "22t": 3438,
      "shared": 3439,
      "wp": 3440,
      "rQ": 3441,
      "AY": 3442,
      "GCL": 3443,
      "intType": 3444,
      "CX": 3445,
      "autofocus": 3446,
      "_version": 3447,
      "TN": 3448,
      "497": 3449,
      "Z9": 3450,
      "OO": 3451,
      "HMC": 3452,
      "LW": 3453,
      "BwE": 3454,
      "20x": 3455,
      "cdn": 3456,
      "Qm": 3457,
      "_consent": 3458,
      "2g": 3459,
      "afetc": 3460,
      "shopping": 3461,
      "Qob": 3462,
      "bq": 3463,
      "php": 3464,
      "AAEg": 3465,
      "20autofocus": 3466,
      "AAYAS": 3467,
      "EAIaI": 3468,
      "D_BwE": 3469,
      "QobCh": 3470,
      "AAYASAAEg": 3471,
      "EAIaIQobCh": 3472,
      "v3": 3473,
      "Xx": 3474,
      "ely": 3475,
      "fil": 3476,
      "context": 3477,
      "300": 3478,
      "control": 3479,
      "6G": 3480,
      "d00": 3481,
      "2525": 3482,
      "QH": 3483,
      "anner": 3484,
      "ens": 3485,
      "Aa": 3486,
      "Bq": 3487,
      "116": 3488,
      "IJ": 3489,
      "_perc": 3490,
      "4c76": 3491,
      "Nf": 3492,
      "7f54": 3493,
      "7U": 3494,
      "25eb": 3495,
      "b8": 3496,
      "e6ccf": 3497,
      "a4245": 3498,
      "9cba4245": 3499,
      "6bb7f54": 3500,
      "6bb7f54e6ccf": 3501,
      "popul": 3502,
      "unk": 3503,
      "151": 3504,
      "++": 3505,
      "v_4_s": 3506,
      "ight": 3507,
      "dtCookie": 3508,
      "dtPC": 3509,
      "dtSa": 3510,
      "rxvt": 3511,
      "rxVisitor": 3512,
      "v_4_srv": 3513,
      "QN": 3514,
      "resses": 3515,
      "_shopify_s": 3516,
      "BA": 3517,
      "Kz": 3518,
      "165": 3519,
      "popularity": 3520,
      "static": 3521,
      "Universal": 3522,
      "KU": 3523,
      "5i": 3524,
      "ions": 3525,
      "sb7": 3526,
      "VS": 3527,
      "T7": 3528,
      "2513": 3529,
      "14T": 3530,
      "7Cf": 3531,
      "x86": 3532,
      "249": 3533,
      "V3": 3534,
      "};": 3535,
      "w5": 3536,
      "undle": 3537,
      "Hx": 3538,
      "b139": 3539,
      "QG": 3540,
      "uS": 3541,
      "uniq": 3542,
      "2210": 3543,
      "757": 3544,
      "c2_f": 3545,
      "_lc2_f": 3546,
      "pbjs_shared": 3547,
      "_lc2_fpi": 3548,
      "pbjs_sharedId": 3549,
      "IsIn": 3550,
      "target": 3551,
      "List": 3552,
      "Women": 3553,
      "gE": 3554,
      "00000_": 3555,
      "4055": 3556,
      "1_ol": 3557,
      "_100000_": 3558,
      "_0_perc": 3559,
      "1_ol_0_perc": 3560,
      "_100000_mul": 3561,
      "1_ol_0_perc_100000_mul": 3562,
      "4W": 3563,
      "396": 3564,
      "4FDD": 3565,
      "te": 3566,
      "Nx": 3567,
      "ZO": 3568,
      "Cv": 3569,
      "UAv": 3570,
      "327": 3571,
      "KL": 3572,
      "172": 3573,
      "ified": 3574,
      "iOjAs": 3575,
      "Q3": 3576,
      "kup": 3577,
      "206": 3578,
      "Vhd": 3579,
      "_ID": 3580,
      "optim": 3581,
      "vW": 3582,
      "abel": 3583,
      "4bq": 3584,
      "fle": 3585,
      "5p": 3586,
      "651": 3587,
      "sua": 3588,
      "qz": 3589,
      "xss": 3590,
      "GG": 3591,
      "Zt": 3592,
      "_fs_": 3593,
      "lP": 3594,
      "optimiz": 3595,
      "Zo": 3596,
      "Mq51": 3597,
      "Hi3": 3598,
      "css": 3599,
      "ec95": 3600,
      "293m": 3601,
      "acds": 3602,
      "mx293m": 3603,
      "QTHi3": 3604,
      "suaMq51": 3605,
      "ec95suaMq51": 3606,
      "acdsQTHi3": 3607,
      "ec95suaMq51mx293m": 3608,
      "acdsQTHi3ec95suaMq51mx293m": 3609,
      "C6C": 3610,
      "Tb": 3611,
      "entry": 3612,
      "1728106": 3613,
      "Hv": 3614,
      "NGR": 3615,
      "C71": 3616,
      "B4": 3617,
      "_request": 3618,
      "reat": 3619,
      "1440": 3620,
      "8O": 3621,
      "e4": 3622,
      "C0": 3623,
      "play": 3624,
      "NX": 3625,
      "20M": 3626,
      "nown": 3627,
      "Ih": 3628,
      "eX": 3629,
      "~||": 3630,
      "ange": 3631,
      "+%": 3632,
      "AND": 3633,
      "20f": 3634,
      "ZXI": 3635,
      "160": 3636,
      "60C": 3637,
      "2Caam": 3638,
      "5b2": 3639,
      "activate": 3640,
      "H6": 3641,
      "Z3": 3642,
      "5rj": 3643,
      "FX": 3644,
      "JQU": 3645,
      "zp": 3646,
      "item": 3647,
      "bef": 3648,
      "gv": 3649,
      "n3g": 3650,
      "E8": 3651,
      "2e0x2e": 3652,
      "512": 3653,
      "bm_sv": 3654,
      "365": 3655,
      "_sn_": 3656,
      "frames": 3657,
      "fmt": 3658,
      "UI": 3659,
      "RY": 3660,
      "val": 3661,
      "Sr": 3662,
      "link": 3663,
      "HO": 3664,
      "C7": 3665,
      "3d1d": 3666,
      "586": 3667,
      "If": 3668,
      "ij": 3669,
      "vc": 3670,
      "WT": 3671,
      "Qf": 3672,
      "Er": 3673,
      "_ac": 3674,
      "v4bq": 3675,
      "29sb7": 3676,
      "495rj": 3677,
      "usn3g": 3678,
      "cl29sb7": 3679,
      "bh5b2": 3680,
      "6v3d1d": 3681,
      "v4bqbh5b2": 3682,
      "usn3g495rj": 3683,
      "cl29sb7v4bqbh5b2": 3684,
      "6v3d1dcl29sb7v4bqbh5b2": 3685,
      "6v3d1dcl29sb7v4bqbh5b2usn3g495rj": 3686,
      "Yq": 3687,
      "Vs": 3688,
      "www2": 3689,
      "cK": 3690,
      "456": 3691,
      "uy": 3692,
      "..../%": 3693,
      "1728868498": 3694,
      "Ti": 3695,
      "SM": 3696,
      "s_g": 3697,
      "=~": 3698,
      "Out": 3699,
      "mD": 3700,
      "pression": 3701,
      "19fb": 3702,
      "optimizely": 3703,
      "ence": 3704,
      "word": 3705,
      "94e": 3706,
      "javascript": 3707,
      "wO": 3708,
      "qn": 3709,
      "X1": 3710,
      "3A2": 3711,
      "103": 3712,
      "_com": 3713,
      "Bl": 3714,
      "_lr": 3715,
      "Rx": 3716,
      "Uf": 3717,
      "low": 3718,
      "6j": 3719,
      "Tl": 3720,
      "Set": 3721,
      "6S": 3722,
      "C1": 3723,
      "DFC": 3724,
      "start": 3725,
      "_w": 3726,
      "Lp": 3727,
      "pth": 3728,
      "fl": 3729,
      "Zi": 3730,
      "irst": 3731,
      "8617": 3732,
      "oeu": 3733,
      "465": 3734,
      "page_type": 3735,
      "lassian": 3736,
      "bm_mi": 3737,
      "zx": 3738,
      "D9": 3739,
      "T0": 3740,
      "X0": 3741,
      "h1": 3742,
      "425": 3743,
      "ident": 3744,
      "ampa": 3745,
      "1728208412": 3746,
      "ampaign": 3747,
      "42b": 3748,
      "depth": 3749,
      "600": 3750,
      "Js": 3751,
      "X3": 3752,
      "aed": 3753,
      "22500": 3754,
      "SR": 3755,
      "EndUserId": 3756,
      "optimizelyEndUserId": 3757,
      "2P": 3758,
      "1749": 3759,
      "895": 3760,
      "yB": 3761,
      "lH": 3762,
      "ks": 3763,
      "m8": 3764,
      "zS": 3765,
      "72605": 3766,
      "182": 3767,
      "1663169": 3768,
      "_D": 3769,
      "r3": 3770,
      "na": 3771,
      "FDB": 3772,
      "Y_": 3773,
      "X7": 3774,
      "1728205744648": 3775,
      "1728205744665": 3776,
      ".../.%": 3777,
      "2250072605": 3778,
      "3A90": 3779,
      "cQ": 3780,
      "270": 3781,
      "Seg": 3782,
      "EP": 3783,
      "Ns": 3784,
      "173": 3785,
      "LM": 3786,
      "1M": 3787,
      "R8": 3788,
      "_met": 3789,
      "uZ": 3790,
      "CON": 3791,
      "7094e": 3792,
      "7Z": 3793,
      "Loo": 3794,
      "2383": 3795,
      "rn": 3796,
      "1_d": 3797,
      "AH": 3798,
      "q6": 3799,
      "202407": 3800,
      "unknown": 3801,
      "U4": 3802,
      "ommen": 3803,
      "p0": 3804,
      "25D7": 3805,
      "647": 3806,
      "150": 3807,
      "Oo": 3808,
      "ej": 3809,
      "C5": 3810,
      "zd": 3811,
      "8L": 3812,
      "uniqlo": 3813,
      "ux": 3814,
      "Sm": 3815,
      "225": 3816,
      "1i": 3817,
      "min": 3818,
      "Hn": 3819,
      "06T": 3820,
      "125": 3821,
      "Lookup": 3822,
      "B8": 3823,
      "GW": 3824,
      "295": 3825,
      "Q5": 3826,
      "add": 3827,
      "1728663204": 3828,
      "TDID": 3829,
      "rD": 3830,
      "tc": 3831,
      "20onanimation": 3832,
      "Jn": 3833,
      "3Atarget": 3834,
      "Yv": 3835,
      "Et": 3836,
      "K2": 3837,
      "2305": 3838,
      "ult": 3839,
      "Iz": 3840,
      "LX": 3841,
      "qv": 3842,
      "Oak": 3843,
      "jsp": 3844,
      "flex": 3845,
      "ifier": 3846,
      "History": 3847,
      "Go": 3848,
      "wm": 3849,
      "ABQ": 3850,
      "IB": 3851,
      "qo": 3852,
      "Wa": 3853,
      "Event": 3854,
      "Zs": 3855,
      "-%": 3856,
      "2c": 3857,
      "lj": 3858,
      "JP": 3859,
      "8F": 3860,
      "Ej": 3861,
      "maliha": 3862,
      "UID": 3863,
      "MTA1": 3864,
      "vK": 3865,
      "WQm": 3866,
      "Request": 3867,
      "22visit": 3868,
      "././././": 3869,
      "3Ax": 3870,
      "dZ": 3871,
      "_to": 3872,
      "87eb": 3873,
      "Ro": 3874,
      "Hy": 3875,
      "sdk": 3876,
      "22TDID": 3877,
      "c524": 3878,
      "87eb11ef": 3879,
      "Xh": 3880,
      "643": 3881,
      "1f2": 3882,
      "_info": 3883,
      "Tp": 3884,
      "ave": 3885,
      "BRAND": 3886,
      "_gat": 3887,
      "ish": 3888,
      "2299": 3889,
      "1728568": 3890,
      "pdp": 3891,
      "Nq": 3892,
      "ub9": 3893,
      "ults": 3894,
      "_customer": 3895,
      "dWlkPU5": 3896,
      "HU": 3897,
      "399": 3898,
      "JU": 3899,
      "MQ": 3900,
      "Lom": 3901,
      "M1MD": 3902,
      "ukub9": 3903,
      "K7vj": 3904,
      "Lomukub9": 3905,
      "Lomukub9K7vj": 3906,
      "897": 3907,
      "vari": 3908,
      "606": 3909,
      "IH": 3910,
      "yal": 3911,
      "7g": 3912,
      "Maliha": 3913,
      "akter": 3914,
      "abtUser": 3915,
      "malihaakter": 3916,
      "malihaakter96": 3917,
      "xy": 3918,
      "en_GB": 3919,
      "Xs": 3920,
      "YC": 3921,
      "S4": 3922,
      "S9": 3923,
      "forter": 3924,
      "hR": 3925,
      "22re": 3926,
      "Sy": 3927,
      "lx": 3928,
      "nc": 3929,
      "e2": 3930,
      "yalty": 3931,
      "0120": 3932,
      "F50": 3933,
      "J6": 3934,
      "811426": 3935,
      "8114260120": 3936,
      "Mv": 3937,
      "3CI": 3938,
      "=-;": 3939,
      "JdFl": 3940,
      "7m": 3941,
      "228114260120": 3942,
      "ODM1MD": 3943,
      "MTA1ODM1MD": 3944,
      "MTA1ODM1MDQ2": 3945,
      "Address": 3946,
      "WTR": 3947,
      "Nh": 3948,
      "6c": 3949,
      "QAQAA": 3950,
      "bab": 3951,
      "HT": 3952,
      "kz": 3953,
      "aG": 3954,
      "extens": 3955,
      "anonymous_": 3956,
      "NC": 3957,
      "AQi": 3958,
      "437": 3959,
      "JK": 3960,
      "6Q": 3961,
      "pv": 3962,
      "462": 3963,
      "shoes": 3964,
      "Rf": 3965,
      "IC": 3966,
      "22last": 3967,
      "740": 3968,
      "AN": 3969,
      "tern": 3970,
      "D_BG": 3971,
      "SPD_BG": 3972,
      "erId": 3973,
      "dom": 3974,
      "1728818646": 3975,
      "2219": 3976,
      "2BC": 3977,
      "eventType": 3978,
      "pix": 3979,
      "_site": 3980,
      "ssword": 3981,
      "UDF": 3982,
      "schema": 3983,
      "5v": 3984,
      "2F5": 3985,
      "BVBRAND": 3986,
      "Wg": 3987,
      "aH": 3988,
      "scre": 3989,
      "forterToken": 3990,
      "Password": 3991,
      "bad": 3992,
      "__UDF": 3993,
      "HAR": 3994,
      "Lm": 3995,
      "atlassian": 3996,
      "tF": 3997,
      "images": 3998,
      "_TR": 3999,
      "hipping": 4000,
      "6f": 4001,
      "img": 4002,
      "IV": 4003,
      "Xw": 4004,
      "Lq": 4005,
      "SessionID": 4006,
      "_of": 4007,
      "9s": 4008,
      "alog": 4009,
      "660": 4010,
      "HH": 4011,
      "west": 4012,
      "jO": 4013,
      "ude": 4014,
      "cG": 4015,
      "mF": 4016,
      "QQ": 4017,
      "row": 4018,
      "tings": 4019,
      "538": 4020,
      "Settings": 4021,
      "qZ": 4022,
      "signin": 4023,
      "b27": 4024,
      "lc": 4025,
      "554": 4026,
      "avel": 4027,
      "dS": 4028,
      "edirect": 4029,
      "819": 4030,
      "PD": 4031,
      "USD": 4032,
      "BU": 4033,
      "585": 4034,
      "NvbS": 4035,
      "display": 4036,
      "Rev": 4037,
      "iSAQAA": 4038,
      "nh": 4039,
      "1660213": 4040,
      "1k": 4041,
      "mfc": 4042,
      "ppv": 4043,
      "_in_ms": 4044,
      "b21": 4045,
      "8z": 4046,
      "XST": 4047,
      "c15": 4048,
      "C433": 4049,
      "pu": 4050,
      "20002": 4051,
      "3082": 4052,
      "3799": 4053,
      "24A0": 4054,
      "__UDF43": 4055,
      "cee": 4056,
      "36C433": 4057,
      "99A1D": 4058,
      "76FDB": 4059,
      "BF99A1D": 4060,
      "ALNI_M": 4061,
      "9C624A0": 4062,
      "4FDD36C433": 4063,
      "C71BF99A1D": 4064,
      "76FDB4FDD36C433": 4065,
      "9C624A0C71BF99A1D": 4066,
      "76FDB4FDD36C4339C624A0C71BF99A1D": 4067,
      "51b": 4068,
      "Gh": 4069,
      "ges": 4070,
      "SENT": 4071,
      "RES": 4072,
      "tap": 4073,
      "KD": 4074,
      "Th": 4075,
      "17282059": 4076,
      "cmt": 4077,
      "_profile": 4078,
      "hippingAddress": 4079,
      "prf": 4080,
      "5112": 4081,
      "Xb": 4082,
      "M3": 4083,
      "c10": 4084,
      "oss": 4085,
      "clo": 4086,
      "br58": 4087,
      "identifier": 4088,
      "524": 4089,
      "oW": 4090,
      "VR": 4091,
      "Yr": 4092,
      "xsr": 4093,
      "br53": 4094,
      "5a9": 4095,
      "342": 4096,
      "4s": 4097,
      "40key": 4098,
      "top": 4099,
      "pZCI6": 4100,
      "40keyframes": 4101,
      "br43": 4102,
      "br88": 4103,
      "br02": 4104,
      "br62": 4105,
      "ABSeg": 4106,
      "7o": 4107,
      "L2": 4108,
      "c11": 4109,
      "pS": 4110,
      "br64": 4111,
      "br105": 4112,
      "br36": 4113,
      "br56": 4114,
      "br07": 4115,
      "br60": 4116,
      "br129": 4117,
      "br84": 4118,
      "br52": 4119,
      "br01": 4120,
      "br48": 4121,
      "br73": 4122,
      "brseg": 4123,
      "br200": 4124,
      "brhp": 4125,
      "br180": 4126,
      "brngen": 4127,
      "brdiv": 4128,
      "br201": 4129,
      "br190": 4130,
      "br117": 4131,
      "br159": 4132,
      "br213": 4133,
      "br110": 4134,
      "br143": 4135,
      "br102": 4136,
      "br205": 4137,
      "brbx": 4138,
      "br164": 4139,
      "br185": 4140,
      "br114": 4141,
      "br151": 4142,
      "hoppingBag": 4143,
      "pperId": 4144,
      "yprf": 4145,
      "prsc": 4146,
      "xb34": 4147,
      "xb72": 4148,
      "xb190": 4149,
      "xb169": 4150,
      "xb137": 4151,
      "xb122": 4152,
      "xb215": 4153,
      "xb115": 4154,
      "xb141": 4155,
      "redirect_reset": 4156,
      "redirect_customer": 4157,
      "redirect_profile": 4158,
      "pgON": 4159,
      "pgBR": 4160,
      "pgAT": 4161,
      "pgGP": 4162,
      "br170": 4163,
      "br172": 4164,
      "br173": 4165,
      "br174": 4166,
      "br177": 4167,
      "br178": 4168,
      "signngen": 4169,
      "bdss": 4170,
      "redirect_account": 4171,
      "redirect_wallet": 4172,
      "redirect_shippingAddress": 4173,
      "redirect_shoppingBag": 4174,
      "xl74": 4175,
      "xb182": 4176,
      "xb183": 4177,
      "xb187": 4178,
      "ShopperId": 4179,
      "xb192": 4180,
      "xb196": 4181,
      "br162": 4182,
      "br168": 4183,
      "br191": 4184,
      "redirect_orderLookup": 4185,
      "redirect_orderHistory": 4186,
      "redirect_signIn": 4187,
      "redirect_signOut": 4188,
      "plpredesign": 4189,
      "xss83": 4190,
      "NGRedirect": 4191,
      "unknownShopperId": 4192,
      "signinui": 4193,
      "cmtyprf": 4194,
      "prfwallet": 4195,
      "xsr75": 4196,
      "brhpngen": 4197,
      "brdivngen": 4198,
      "redirect_resetPassword": 4199,
      "redirect_customerValue": 4200,
      "redirect_accountSettings": 4201,
      "cmtyprfui": 4202,
      "9u": 4203,
      "669": 4204,
      "793": 4205,
      "c14": 4206,
      "g0": 4207,
      "tmx": 4208,
      "382": 4209,
      "7i": 4210,
      "172811": 4211,
      "c13": 4212,
      "0001": 4213,
      "1B": 4214,
      "Xz": 4215,
      "KING": 4216,
      "123": 4217,
      "0x5c": 4218,
      "OC": 4219,
      "Page": 4220,
      "mm": 4221,
      "ories": 4222,
      "xC": 4223,
      "546": 4224,
      "Kl": 4225,
      "1728870": 4226,
      "Version": 4227,
      "2CBG": 4228,
      "22e": 4229,
      "Pw": 4230,
      "4016": 4231,
      "c12": 4232,
      "d0": 4233,
      "ips": 4234,
      "6715": 4235,
      "BMM": 4236,
      "pon": 4237,
      "2w": 4238,
      "fit": 4239,
      "pgu": 4240,
      "tag": 4241,
      "ki": 4242,
      "gi": 4243,
      "WWg": 4244,
      "RPW": 4245,
      "3K": 4246,
      "_state": 4247,
      "a8b": 4248,
      "Start": 4249,
      "OB": 4250,
      "s_l": 4251,
      "9q": 4252,
      "MGR": 4253,
      "Jp": 4254,
      "f07": 4255,
      "xa": 4256,
      "LR": 4257,
      "CONSENT": 4258,
      "0s": 4259,
      "JR": 4260,
      "ined": 4261,
      "400": 4262,
      "u8": 4263,
      "gpn": 4264,
      "2tL": 4265,
      "jK": 4266,
      "_pn": 4267,
      "nio": 4268,
      "mk": 4269,
      "uec": 4270,
      "867": 4271,
      "v_id": 4272,
      "07500": 4273,
      "1f06": 4274,
      "DC": 4275,
      "XWp": 4276,
      "gb": 4277,
      "1658": 4278,
      "_TRAC": 4279,
      "vapi_domain": 4280,
      "ses_id": 4281,
      "7C20002": 4282,
      "_sn": 4283,
      "time_in_ms": 4284,
      "1176715": 4285,
      "AMCV_93BE1C8B532956910A490D4D": 4286,
      "5olk": 4287,
      "previous_page_type": 4288,
      "d0093c": 4289,
      "entry_brand": 4290,
      "RES_TRAC": 4291,
      "tmxSessionID": 4292,
      "KINGID": 4293,
      "CONSENTMGR": 4294,
      "075001f06": 4295,
      "1176715910": 4296,
      "RES_TRACKINGID": 4297,
      "075001f06d0093c": 4298,
      "Ol": 4299,
      "7CRK": 4300,
      "AcUni": 4301,
      "hpRz": 4302,
      "PHaM": 4303,
      "QYPHaM": 4304,
      "3xzP": 4305,
      "O6pgu": 4306,
      "dJ3xzP": 4307,
      "rg2tL": 4308,
      "8krg2tL": 4309,
      "AMCVS_93BE1C8B532956910A490D4D": 4310,
      "WQmdj0y": 4311,
      "WWgdJ3xzP": 4312,
      "XWp5olk": 4313,
      "7CRKhpRz": 4314,
      "AcUniQYPHaM": 4315,
      "O6pguXWp5olk": 4316,
      "8krg2tLO6pguXWp5olk": 4317,
      "WWgdJ3xzPWQmdj0y": 4318,
      "7CRKhpRz8krg2tLO6pguXWp5olk": 4319,
      "AcUniQYPHaMWWgdJ3xzPWQmdj0y": 4320,
      "7CRKhpRz8krg2tLO6pguXWp5olkAcUniQYPHaMWWgdJ3xzPWQmdj0y": 4321,
      "ck_": 4322,
      "valid": 4323,
      "hS": 4324,
      "identifierType": 4325,
      "s_cc": 4326,
      "s_tp": 4327,
      "s_depth": 4328,
      "s_ppv": 4329,
      "s_ips": 4330,
      "s_gpn": 4331,
      "2CC0014": 4332,
      "2CC0015": 4333,
      "2CBG149": 4334,
      "s_lpt": 4335,
      "cU": 4336,
      "uj": 4337,
      "c680": 4338,
      "5x": 4339,
      "uecore": 4340,
      "2C0_18": 4341,
      "MRF": 4342,
      "s_sq": 4343,
      "MRU": 4344,
      "2A": 4345,
      "before": 4346,
      "965": 4347,
      "E6F": 4348,
      "1n": 4349,
      "RV": 4350,
      "VMM": 4351,
      "_event": 4352,
      "az": 4353,
      "b70": 4354,
      "dro": 4355,
      "_gcl_aw": 4356,
      "GFK": 4357,
      "LA": 4358,
      "label": 4359,
      "MCMC": 4360,
      "MMMRU": 4361,
      "AFAT": 4362,
      "RDVMM": 4363,
      "BDMMMRU": 4364,
      "Cache": 4365,
      "MJBDMMMRU": 4366,
      "RPWMJBDMMMRU": 4367,
      "MRFGFK": 4368,
      "MCMCRDVMM": 4369,
      "RPWMJBDMMMRUMCMCRDVMM": 4370,
      "MRFGFKRPWMJBDMMMRUMCMCRDVMM": 4371,
      "MRFGFKRPWMJBDMMMRUMCMCRDVMMAFAT": 4372,
      "4B": 4373,
      "c77": 4374,
      "bluecore": 4375,
      "marketing": 4376,
      "pU": 4377,
      "7W": 4378,
      "hat": 4379,
      "4804016": 4380,
      "480401664": 4381,
      "2F2024": 4382,
      "324": 4383,
      "1029": 4384,
      "id_reset": 4385,
      "ConstructorioID_session": 4386,
      "ConstructorioID_session_id": 4387,
      "lastTime": 4388,
      "dc_event": 4389,
      "dc_visit": 4390,
      "tapid_reset": 4391,
      "653": 4392,
      "826": 4393,
      ".;": 4394,
      ":#/": 4395,
      "SC": 4396,
      "12A5": 4397,
      "dc_region": 4398,
      ":::#/": 4399,
      "25637": 4400,
      "12A5TM": 4401,
      "Jo": 4402,
      "ed_site": 4403,
      "13c680": 4404,
      "mixpanel": 4405,
      "us_mixpanel": 4406,
      "mp_br": 4407,
      "_brus": 4408,
      "16525637": 4409,
      "22visited_site": 4410,
      "mp_brus_mixpanel": 4411,
      "22visited_site_brus": 4412,
      "4g": 4413,
      "loyalty": 4414,
      "108": 4415,
      "g5": 4416,
      "uo": 4417,
      "1z": 4418,
      "MU": 4419,
      "_so": 4420,
      "~(": 4421,
      "badges": 4422,
      "VL": 4423,
      "chin": 4424,
      "eration": 4425,
      "afee": 4426,
      "995249": 4427,
      "9f3": 4428,
      "Em": 4429,
      "Qq": 4430,
      "1660569": 4431,
      "35b": 4432,
      "Sj": 4433,
      "pst": 4434,
      "Jc": 4435,
      "MP": 4436,
      "s_ghn": 4437,
      "thing": 4438,
      "0700": 4439,
      "e31": 4440,
      "tv": 4441,
      "147": 4442,
      "A7": 4443,
      "Au": 4444,
      "13829": 4445,
      "156": 4446,
      "YWx": 4447,
      "Jh": 4448,
      "9bf0": 4449,
      "kt": 4450,
      "WH": 4451,
      "]}": 4452,
      "V1h": 4453,
      "252Fwww": 4454,
      "222": 4455,
      "IQ": 4456,
      "890": 4457,
      "ORP": 4458,
      "qP": 4459,
      "11E": 4460,
      "JZ": 4461,
      "h6": 4462,
      "166316980": 4463,
      "27f": 4464,
      "X6": 4465,
      "vG": 4466,
      "rrv": 4467,
      "E3Mj": 4468,
      "ajs_": 4469,
      "3513829": 4470,
      "351382932": 4471,
      "Hb": 4472,
      "Mu": 4473,
      "SI6": 4474,
      "ONT": 4475,
      "TB": 4476,
      "f54": 4477,
      "DP": 4478,
      "388": 4479,
      "Yi": 4480,
      "5u": 4481,
      "Q8": 4482,
      "trib": 4483,
      "3e": 4484,
      "jw": 4485,
      "0x2f": 4486,
      "8900": 4487,
      "vUMRFGFKRPWMJBDMMMRUMCMCRDVMMAFAT": 4488,
      "435": 4489,
      "search_": 4490,
      "Tz": 4491,
      "fx": 4492,
      "WY": 4493,
      "Xy": 4494,
      "1920x": 4495,
      "a54": 4496,
      "20onfocus": 4497,
      "_banner": 4498,
      "Km": 4499,
      "eb7": 4500,
      "b2c": 4501,
      "UG": 4502,
      "PP": 4503,
      "M7": 4504,
      "e0f": 4505,
      "Um9": 4506,
      "v0": 4507,
      "AV": 4508,
      "_dnt": 4509,
      "SQ": 4510,
      "Xr": 4511,
      "tribut": 4512,
      "124": 4513,
      "B99": 4514,
      "0x2e0x2e": 4515,
      "pM": 4516,
      "navig": 4517,
      "ell": 4518,
      "Am": 4519,
      "gcl": 4520,
      "2F6": 4521,
      "Hg": 4522,
      "dh": 4523,
      "0612": 4524,
      "drop": 4525,
      "4a6": 4526,
      "4d6b": 4527,
      "4p": 4528,
      "xAM": 4529,
      "b6c": 4530,
      "2i": 4531,
      "menu": 4532,
      "MjQ4": 4533,
      "274": 4534,
      "qj": 4535,
      "],": 4536,
      "full": 4537,
      "896": 4538,
      "3A55": 4539,
      "AAAX": 4540,
      "0f": 4541,
      "4i": 4542,
      "20009": 4543,
      "_3": 4544,
      "NU": 4545,
      "yb": 4546,
      "20onbefore": 4547,
      "7C17280612": 4548,
      "7C1728061200000": 4549,
      "M5": 4550,
      "Email": 4551,
      "K6": 4552,
      "e52": 4553,
      "impression": 4554,
      "f10": 4555,
      "bbe": 4556,
      "akstat": 4557,
      "14b": 4558,
      "Py": 4559,
      "3h": 4560,
      "Ok": 4561,
      "PRF": 4562,
      "Dw": 4563,
      "0H": 4564,
      "DDB": 4565,
      "tz": 4566,
      "788": 4567,
      "BQ": 4568,
      "1l": 4569,
      "Y6": 4570,
      "8n": 4571,
      "3BG": 4572,
      "bcn": 4573,
      "EAIaIQobChMI": 4574,
      "SF": 4575,
      "u2": 4576,
      "Ra": 4577,
      "ff0": 4578,
      "2238": 4579,
      "1728208461": 4580,
      "ktn": 4581,
      "535": 4582,
      "||~-": 4583,
      "bag": 4584,
      "cam": 4585,
      "lan": 4586,
      "timestamp": 4587,
      "51f": 4588,
      "5597": 4589,
      "gF": 4590,
      "Ep": 4591,
      "_last": 4592,
      "lgn": 4593,
      "Ls": 4594,
      "oc": 4595,
      "505": 4596,
      "pZe": 4597,
      "d0d": 4598,
      "__g": 4599,
      "2BB": 4600,
      "4a58": 4601,
      "_5": 4602,
      "C98": 4603,
      "uW": 4604,
      "22transition": 4605,
      "20ontransition": 4606,
      "69342": 4607,
      "wLz": 4608,
      "dWlkPVl": 4609,
      "4d06": 4610,
      "DF0": 4611,
      "sK": 4612,
      "545": 4613,
      "pf_app": 4614,
      "lgnstat": 4615,
      "Pg": 4616,
      "ont": 4617,
      "21e": 4618,
      "error": 4619,
      "bD": 4620,
      "C8126": 4621,
      "BMM69342": 4622,
      "TATr": 4623,
      "BDDB": 4624,
      "5DE6F": 4625,
      "A4365": 4626,
      "DB886": 4627,
      "9DDF0": 4628,
      "2BCC8126": 4629,
      "BDDB5DE6F": 4630,
      "DB886A4365": 4631,
      "9DDF0DB886A4365": 4632,
      "2BCC81269DDF0DB886A4365": 4633,
      "BDDB5DE6F2BCC81269DDF0DB886A4365": 4634,
      "JkR": 4635,
      "Zx": 4636,
      "vk": 4637,
      "4c64": 4638,
      "fK": 4639,
      "7Cq": 4640,
      "pX": 4641,
      "7C1": 4642,
      "F4": 4643,
      "Fm": 4644,
      "9999": 4645,
      "gpi": 4646,
      "1630": 4647,
      "EAAYASAAEg": 4648,
      "8v0": 4649,
      "B55": 4650,
      "Fe": 4651,
      "iType": 4652,
      "qSAQAA": 4653,
      "ponent": 4654,
      "ination": 4655,
      "2ad": 4656,
      "202": 4657,
      "5m": 4658,
      "adb2": 4659,
      "3789": 4660,
      "sQ": 4661,
      "917": 4662,
      "__gpi": 4663,
      "__gads": 4664,
      "U53": 4665,
      "Client": 4666,
      "n0": 4667,
      "27s": 4668,
      "2224": 4669,
      "=/": 4670,
      "1356": 4671,
      "Ui": 4672,
      "3VL": 4673,
      "pk": 4674,
      "5g": 4675,
      "p4": 4676,
      "877": 4677,
      "4AA": 4678,
      "PX": 4679,
      "0c77": 4680,
      "UL": 4681,
      "223369": 4682,
      "y2": 4683,
      "9n": 4684,
      "eb68": 4685,
      "per": 4686,
      "change": 4687,
      "4d37": 4688,
      "FPLC": 4689,
      "UxXR": 4690,
      "FPID2": 4691,
      "zC": 4692,
      "zt": 4693,
      "Bc": 4694,
      "EST": 4695,
      "1a3": 4696,
      "4K": 4697,
      "P3L": 4698,
      "443": 4699,
      "R2a": 4700,
      "urpo": 4701,
      "Yu": 4702,
      "lG": 4703,
      "8q": 4704,
      "Uu": 4705,
      "p5": 4706,
      "4bc6": 4707,
      "...": 4708,
      "r9": 4709,
      "Data": 4710,
      "LN": 4711,
      "tN": 4712,
      "event_name": 4713,
      "Od": 4714,
      "1430": 4715,
      "224": 4716,
      "231": 4717,
      "asket": 4718,
      "china": 4719,
      "T8": 4720,
      "Fo": 4721,
      "26co": 4722,
      "1e0": 4723,
      "UX": 4724,
      "Kx": 4725,
      "zem": 4726,
      "22w": 4727,
      "167": 4728,
      "eoi": 4729,
      "9Z": 4730,
      "vEw": 4731,
      "64940": 4732,
      "__eoi": 4733,
      "6494087": 4734,
      "abc": 4735,
      "je": 4736,
      "vz": 4737,
      "769": 4738,
      "assed": 4739,
      "22last_cart": 4740,
      "fq": 4741,
      "her": 4742,
      "2FB": 4743,
      "Qt": 4744,
      "9464": 4745,
      "3DD": 4746,
      "QBQ": 4747,
      "PG": 4748,
      "Hc": 4749,
      "krx": 4750,
      "5215": 4751,
      "74a": 4752,
      "paque": 4753,
      "PaO": 4754,
      "8c3": 4755,
      "BN": 4756,
      "_schema": 4757,
      "qlt": 4758,
      "24043": 4759,
      "17924": 4760,
      "iOjE3Mj": 4761,
      "Eu": 4762,
      "3654": 4763,
      "3ECL": 4764,
      "202410": 4765,
      "1728205507817": 4766,
      "1728205507816": 4767,
      "R0": 4768,
      "Td": 4769,
      "erat": 4770,
      "1728205533": 4771,
      "ER0": 4772,
      "Xm": 4773,
      "dwell": 4774,
      "ger": 4775,
      "8074": 4776,
      "gtm": 4777,
      "pvt": 4778,
      "leg": 4779,
      "otal": 4780,
      "HGL": 4781,
      "140": 4782,
      "aem": 4783,
      "C8A": 4784,
      "_ga_W": 4785,
      "7954": 4786,
      "865c": 4787,
      "85e": 4788,
      "P7": 4789,
      "hG": 4790,
      "1476": 4791,
      "8619": 4792,
      "9700": 4793,
      "is_new": 4794,
      "514": 4795,
      "Pi": 4796,
      "a660": 4797,
      "time2": 4798,
      "6620": 4799,
      "ftr": 4800,
      "f5e": 4801,
      "ccc2": 4802,
      "asn": 4803,
      "AU6gO89UNb1_kzaHSmyewka9gpdjgwS": 4804,
      "So": 4805,
      "ZM": 4806,
      "32B": 4807,
      "06T09": 4808,
      "NKQ": 4809,
      "_hj": 4810,
      "4676": 4811,
      "d529": 4812,
      "wjy": 4813,
      "ec1b": 4814,
      "892": 4815,
      "1728205506": 4816,
      "X55": 4817,
      "Ya": 4818,
      "h4": 4819,
      "_cookies_": 4820,
      "26ca": 4821,
      "8955": 4822,
      "73473": 4823,
      "047": 4824,
      "713": 4825,
      "fc99": 4826,
      "47c6": 4827,
      "accepted": 4828,
      "26me": 4829,
      "4d99": 4830,
      "df4a": 4831,
      "d5_": 4832,
      "aeddf4a": 4833,
      "462d5_": 4834,
      "51b47c6": 4835,
      "5a9aeddf4a": 4836,
      "e52bbe": 4837,
      "4bc65a9aeddf4a": 4838,
      "51b47c6e52bbe": 4839,
      "4bc65a9aeddf4a51b47c6e52bbe": 4840,
      "4bc65a9aeddf4a51b47c6e52bbe462d5_": 4841,
      "0II": 4842,
      "pvis": 4843,
      "1296d": 4844,
      "a0xp": 4845,
      "5c353": 4846,
      "dw_cookies_": 4847,
      "consent_cookie": 4848,
      "c705": 4849,
      "VV32": 4850,
      "e9bb": 4851,
      "_ncd": 4852,
      "dw_is_new": 4853,
      "dw_consent_cookie": 4854,
      "MA34": 4855,
      "ABTastySession": 4856,
      "mrasn": 4857,
      "f10zem": 4858,
      "krxf10zem": 4859,
      "ftr_ncd": 4860,
      "wjya0xp": 4861,
      "fc99b6c": 4862,
      "1296dfc99b6c": 4863,
      "5c353b4d": 4864,
      "dw_cookies_accepted": 4865,
      "dw_is_new_consent": 4866,
      "wjya0xpkrxf10zem": 4867,
      "sZ": 4868,
      "80b4": 4869,
      "26ke": 4870,
      "26cg": 4871,
      "895e": 4872,
      "323ECL": 4873,
      "05D3": 4874,
      "4bef": 4875,
      "UVDN": 4876,
      "MI05D3": 4877,
      "I8LV": 4878,
      "J5QBQ": 4879,
      "LHONT": 4880,
      "3SJ9": 4881,
      "4C3SJ9": 4882,
      "1728205507774": 4883,
      "1728205507773BG": 4884,
      "83859": 4885,
      "_sn_HGL": 4886,
      "P3LI8LV": 4887,
      "ER0UVDN": 4888,
      "NKQ0II": 4889,
      "VV32P3LI8LV": 4890,
      "MA34NKQ0II": 4891,
      "323ECL4C3SJ9": 4892,
      "MI05D3MA34NKQ0II": 4893,
      "J5QBQ323ECL4C3SJ9": 4894,
      "LHONTJ5QBQ323ECL4C3SJ9": 4895,
      "1728205507773BGMI05D3MA34NKQ0II": 4896,
      "_sn_HGLER0UVDN": 4897,
      "VV32P3LI8LV3VL": 4898,
      "1728205507773BGMI05D3MA34NKQ0IIVV32P3LI8LV3VL": 4899,
      "_sn_HGLER0UVDNLHONTJ5QBQ323ECL4C3SJ9": 4900,
      "Cu": 4901,
      "deabb": 4902,
      "3Dnone": 4903,
      "1217924": 4904,
      "1_1217924": 4905,
      "70ccc2": 4906,
      "fe4d99": 4907,
      "1f52": 4908,
      "etc__": 4909,
      "1beb": 4910,
      "__adal_id": 4911,
      "__adal_ses": 4912,
      "1728205507851": 4913,
      "1468074": 4914,
      "__adal_ca": 4915,
      "__adal_cw": 4916,
      "__exponea_etc__": 4917,
      "740deabb": 4918,
      "4d061f52": 4919,
      "3DDirect": 4920,
      "d529fe4d99": 4921,
      "70ccc2dc": 4922,
      "740deabb895e": 4923,
      "d529fe4d99e5": 4924,
      "env": 4925,
      "JW": 4926,
      "9vz": 4927,
      "HMCORP": 4928,
      "HMCORP_locale": 4929,
      "8237": 4930,
      "ga": 4931,
      "wx": 4932,
      "Vji": 4933,
      "j7": 4934,
      "jD": 4935,
      "4b08": 4936,
      "6RX": 4937,
      "lantern": 4938,
      "b965": 4939,
      "dochina": 4940,
      "eb0c77": 4941,
      "fbd6": 4942,
      "202402": 4943,
      "2B0700": 4944,
      "Indochina": 4945,
      "d69700": 4946,
      "6d4bef": 4947,
      "7aeb0c77": 4948,
      "d697006d4bef": 4949,
      "Oz": 4950,
      "eq": 4951,
      "D7G": 4952,
      "SbQ": 4953,
      "yy": 4954,
      "8499": 4955,
      "499819": 4956,
      "5171356": 4957,
      "__exponea_time2": 4958,
      "93815": 4959,
      "4998195171356": 4960,
      "__exponea_time2__": 4961,
      "4998195171356201": 4962,
      "R4": 4963,
      "268083c211ef": 4964,
      "3cd3d": 4965,
      "218083c211ef": 4966,
      "435597": 4967,
      "70ea": 4968,
      "4d459": 4969,
      "1728205512": 4970,
      "Stat": 4971,
      "_ga_CK": 4972,
      "5284": 4973,
      "119700": 4974,
      "198d268083c211ef": 4975,
      "198d218083c211ef": 4976,
      "DLD7G": 4977,
      "349Z": 4978,
      "bab8619": 4979,
      "4c6474a": 4980,
      "1630435597": 4981,
      "865c4d459": 4982,
      "X55DLD7G": 4983,
      "e9bb3cd3d": 4984,
      "938152383": 4985,
      "_ga_CKX55DLD7G": 4986,
      "198d268083c211efbab8619": 4987,
      "198d218083c211ef865c4d459": 4988,
      "198d268083c211efbab8619e9bb3cd3d": 4989,
      "198d218083c211ef865c4d4594c6474a": 4990,
      "5K": 4991,
      "b9e6": 4992,
      "031658": 4993,
      "2f06": 4994,
      "UV0T": 4995,
      "22brus_merged": 4996,
      "22onus_merged": 4997,
      "22bc_last": 4998,
      "1196620": 4999,
      "_opaque": 5000,
      "1197031658": 5001,
      "22atus_merged": 5002,
      "22gpus_merged": 5003,
      "456c": 5004,
      "Status": 5005,
      "1197003789": 5006,
      "22bc_last_opaque": 5007,
      "1196620350": 5008,
      "22bc_last_opaque_id": 5009,
      "3Afbd6": 5010,
      "105r3": 5011,
      "ppTUR": 5012,
      "abUV0T": 5013,
      "TAwW": 5014,
      "ffeb7": 5015,
      "0dJM": 5016,
      "db012": 5017,
      "mpJdFl": 5018,
      "mpPRF": 5019,
      "mxabUV0T": 5020,
      "b3f": 5021,
      "lpUQ": 5022,
      "_7_sn_HGLER0UVDNLHONTJ5QBQ323ECL4C3SJ9": 5023,
      "wWmpJdFl": 5024,
      "k0wWmpJdFl": 5025,
      "7C17281476": 5026,
      "tSm1Ne": 5027,
      "m1NeUxXR": 5028,
      "b_1_ol_0_perc_100000_mul": 5029,
      "7C1740": 5030,
      "v_4_srv_7_sn_HGLER0UVDNLHONTJ5QBQ323ECL4C3SJ9": 5031,
      "7Cfps": 5032,
      "52470ea": 5033,
      "4a69vz": 5034,
      "ff0db012": 5035,
      "pZek0wWmpJdFl": 5036,
      "dWlkPVl6RX": 5037,
      "8c3ffeb7": 5038,
      "2f06b_1_ol_0_perc_100000_mul": 5039,
      "3Afbd652470ea": 5040,
      "105r3bi": 5041,
      "ppTURSbQ": 5042,
      "TAwWm1NeUxXR": 5043,
      "0dJMlpUQ": 5044,
      "mpPRFppTURSbQ": 5045,
      "mxabUV0T0dJMlpUQ": 5046,
      "7C1728147600000": 5047,
      "tSm1NeTAwWm1NeUxXR": 5048,
      "v_4_srv_7_sn_HGLER0UVDNLHONTJ5QBQ323ECL4C3SJ9_app": 5049,
      "ff0db012ec1b": 5050,
      "pZek0wWmpJdFltSm1NeTAwWm1NeUxXR": 5051,
      "dWlkPVl6RXpZek0wWmpJdFltSm1NeTAwWm1NeUxXR": 5052,
      "2f06b_1_ol_0_perc_100000_mul_1": 5053,
      "3Afbd652470ea2f06b_1_ol_0_perc_100000_mul_1": 5054,
      "mxabUV0T0dJMlpUQmpPRFppTURSbQ": 5055,
      "dWlkPVl6RXpZek0wWmpJdFltSm1NeTAwWm1NeUxXRmxabUV0T0dJMlpUQmpPRFppTURSbQ": 5056,
      "Mr": 5057,
      "Vf": 5058,
      "core": 5059,
      "B0": 5060,
      "8073": 5061,
      "India": 5062,
      "a2a3": 5063,
      "orm": 5064,
      "932": 5065,
      "2078": 5066,
      ",,,,": 5067,
      "1728205533895": 5068,
      "Y7": 5069,
      "Gt": 5070,
      "Wz": 5071,
      "exper": 5072,
      "6K": 5073,
      "pL": 5074,
      "4056": 5075,
      "a9d": 5076,
      "ZlY": 5077,
      "=..%": 5078,
      "Fy": 5079,
      "23527": 5080,
      "bW": 5081,
      "lua": 5082,
      "WZZ": 5083,
      "816": 5084,
      "Es": 5085,
      "analytics": 5086,
      "265e": 5087,
      "0W": 5088,
      "Tk": 5089,
      "dad": 5090,
      "f21": 5091,
      "wic": 5092,
      "buY": 5093,
      "eu1": 5094,
      "__cq_uuid": 5095,
      "d6jz": 5096,
      "d793": 5097,
      "defined": 5098,
      "175974": 5099,
      "fs_lua": 5100,
      "dw_country": 5101,
      "683265e": 5102,
      "6gO89UNb1_kzaHSmyewka9gpdjgwS2B": 5103,
      "19fb5": 5104,
      "9bf0a": 5105,
      "4AA5": 5106,
      "f5e19fb5": 5107,
      "dw_country_locale": 5108,
      "683265e9bf0a": 5109,
      "YZk": 5110,
      "f8mp": 5111,
      "a8VX": 5112,
      "1728868499": 5113,
      "Load": 5114,
      "7LbuY": 5115,
      "iVf8mp": 5116,
      "7Ud6jz": 5117,
      "651Oak": 5118,
      "a8VX7Ud6jz": 5119,
      "iVf8mp7LbuY": 5120,
      "651OakiVf8mp7LbuY": 5121,
      "a8VX7Ud6jz651OakiVf8mp7LbuY": 5122,
      "26o": 5123,
      "_tracked": 5124,
      "6a": 5125,
      "86d": 5126,
      "8ED": 5127,
      "4583": 5128,
      "EK": 5129,
      "17294": 5130,
      "271": 5131,
      "A4C98": 5132,
      "04189": 5133,
      "F50A4C98": 5134,
      "2238B55": 5135,
      "5215F50A4C98": 5136,
      "32B2238B55": 5137,
      "5215F50A4C98A4": 5138,
      "32B2238B555215F50A4C98A4": 5139,
      "_32B2238B555215F50A4C98A4": 5140,
      "vg": 5141,
      "mem": 5142,
      "Ri": 5143,
      "vs": 5144,
      "973654": 5145,
      "6448900": 5146,
      "38171749": 5147,
      "91438171749": 5148,
      "2404391438171749": 5149,
      "041896448900": 5150,
      "973654248": 5151,
      "2404391438171749041896448900": 5152,
      "2404391438171749041896448900973654248": 5153,
      "atch": 5154,
      "7C32404391438171749041896448900973654248": 5155,
      "_passed": 5156,
      "flex_": 5157,
      "895511ef": 5158,
      "Qi": 5159,
      "3A54": 5160,
      "exchange": 5161,
      "_fs_dwell": 5162,
      "_fs_dwell_passed": 5163,
      "att": 5164,
      "__cq_seg": 5165,
      "2450": 5166,
      "map": 5167,
      "Yr6": 5168,
      "section": 5169,
      "fV": 5170,
      "3015": 5171,
      "+/": 5172,
      "QzAw": 5173,
      "undefined": 5174,
      "1729423527": 5175,
      "1728819": 5176,
      "Ser": 5177,
      "Fr": 5178,
      "login_tracked": 5179,
      "2024_11_23": 5180,
      "2024_11_07": 5181,
      "i5": 5182,
      "Bn": 5183,
      "db25": 5184,
      "YO": 5185,
      "=.%": 5186,
      "S8": 5187,
      "376": 5188,
      "a76": 5189,
      "7926": 5190,
      "ants": 5191,
      "recommen": 5192,
      "20f60": 5193,
      "_target": 5194,
      "4146": 5195,
      "fk": 5196,
      "otals": 5197,
      "22cart_t": 5198,
      "22cart_totals": 5199,
      "5f6": 5200,
      "BE1": 5201,
      "R1": 5202,
      "ject": 5203,
      "HZI": 5204,
      "cdn_exp_": 5205,
      "26d": 5206,
      "9F": 5207,
      "9t": 5208,
      "vv": 5209,
      "1019": 5210,
      "ections": 5211,
      "3gy": 5212,
      "alp": 5213,
      "17288686": 5214,
      "_fm": 5215,
      "6083": 5216,
      "guid": 5217,
      "IU": 5218,
      "Kn": 5219,
      "1636": 5220,
      "I7": 5221,
      "JHZ": 5222,
      "fY": 5223,
      "udz": 5224,
      "2h": 5225,
      "lh": 5226,
      "_y": 5227,
      "eEx": 5228,
      "114583": 5229,
      "66683": 5230,
      "ee00": 5231,
      "486": 5232,
      "34733": 5233,
      "6668334733": 5234,
      "/\\\",\\\"": 5235,
      "acet": 5236,
      "_fmSession": 5237,
      "moo": 5238,
      "FwAAFw": 5239,
      "3O": 5240,
      "Jk": 5241,
      "rw": 5242,
      "E88": 5243,
      "dfe": 5244,
      "go": 5245,
      "vF": 5246,
      "Wwx": 5247,
      "5424": 5248,
      "TW1": 5249,
      "84d0d": 5250,
      "Search": 5251,
      "2F684d0d": 5252,
      "519": 5253,
      "CpV": 5254,
      "GI": 5255,
      "Vmk": 5256,
      "----": 5257,
      "QOj": 5258,
      "176": 5259,
      "QoK": 5260,
      "event_data_schema": 5261,
      "cfd": 5262,
      "kV": 5263,
      "wbn": 5264,
      "rX": 5265,
      "5h": 5266,
      "u59": 5267,
      "22animation": 5268,
      "Kv": 5269,
      "Ppg": 5270,
      "WjD": 5271,
      "rA": 5272,
      "tton": 5273,
      "y1s": 5274,
      "ae86": 5275,
      "YKw": 5276,
      "450": 5277,
      "82100": 5278,
      "RL": 5279,
      "lock": 5280,
      "Y2h": 5281,
      "jb20": 5282,
      "JQ": 5283,
      "NEx": 5284,
      "Sale": 5285,
      "49da": 5286,
      "_9ck_": 5287,
      "ern": 5288,
      "4h": 5289,
      "7C34": 5290,
      "_page": 5291,
      "ication": 5292,
      "316": 5293,
      "S6": 5294,
      "ric": 5295,
      "e7d": 5296,
      "Pm": 5297,
      "5_M": 5298,
      "f3d": 5299,
      "ceHS": 5300,
      "07yo": 5301,
      "j9Y_": 5302,
      "CpV5_M": 5303,
      "Ppgj9Y_": 5304,
      "y1s07yo": 5305,
      "ceHSy1s07yo": 5306,
      "Ppgj9Y_CpV5_M": 5307,
      "ceHSy1s07yoPpgj9Y_CpV5_M": 5308,
      "D3082": 5309,
      "F2078": 5310,
      "532FB": 5311,
      "FB532FB": 5312,
      "D4BE1": 5313,
      "C6C43": 5314,
      "D911E": 5315,
      "D3082D911E": 5316,
      "F2078D3082D911E": 5317,
      "FB532FBD4BE1": 5318,
      "F2078D3082D911EFB532FBD4BE1": 5319,
      "F2078D3082D911EFB532FBD4BE1C6C43": 5320,
      "D07": 5321,
      "mue": 5322,
      "XJ1": 5323,
      "27c": 5324,
      "h3X": 5325,
      "HzO": 5326,
      "u00032": 5327,
      "ork": 5328,
      "YAAQ3gy": 5329,
      "uKS": 5330,
      "SessionId": 5331,
      "5A": 5332,
      "J4": 5333,
      "Ln": 5334,
      "22display": 5335,
      "b03c": 5336,
      "16626": 5337,
      "3kF": 5338,
      "MN": 5339,
      "969": 5340,
      "4664": 5341,
      "EXO": 5342,
      "Ur": 5343,
      "NzIx": 5344,
      "FFr": 5345,
      "HVo": 5346,
      "4Vk": 5347,
      "285": 5348,
      "room": 5349,
      "S0": 5350,
      "003": 5351,
      "3684": 5352,
      "FN": 5353,
      "ization": 5354,
      "Y4NT": 5355,
      "5W": 5356,
      "Q9": 5357,
      "AZy": 5358,
      "Rm1": 5359,
      "5089": 5360,
      "7451": 5361,
      "istan": 5362,
      "KUV": 5363,
      "53d": 5364,
      "ical": 5365,
      "validate": 5366,
      "Q6": 5367,
      "68A": 5368,
      "Qq0": 5369,
      "ST4": 5370,
      "iSV": 5371,
      "sbO": 5372,
      "vpk": 5373,
      "Raw": 5374,
      "1154": 5375,
      "21a": 5376,
      "cj5": 5377,
      "UN1": 5378,
      "XfO": 5379,
      "6yC": 5380,
      "1974": 5381,
      "0707": 5382,
      "Zkj": 5383,
      "8P9": 5384,
      "2e31": 5385,
      "KNO": 5386,
      "stsbO": 5387,
      "89c9": 5388,
      "ODY4NT": 5389,
      "8vMudz": 5390,
      "6yC_br": 5391,
      "stsbO8vMudz": 5392,
      "stsbO8vMudzHZI": 5393,
      "Hh": 5394,
      "Jg": 5395,
      "1728868504": 5396,
      "A5NzIx": 5397,
      "89c911ef": 5398,
      "ODY4NTA5NzIx": 5399,
      "m5n": 5400,
      "5937": 5401,
      "kFw": 5402,
      "0d1": 5403,
      "urposes": 5404,
      "Lr6": 5405,
      "wkn": 5406,
      "FP0h": 5407,
      "PjGSAQAAFP0h": 5408,
      "PjGSAQAAFP0hWx": 5409,
      "YAAQH5EkFw": 5410,
      "Pe8": 5411,
      "6686": 5412,
      "Info": 5413,
      "A2D": 5414,
      "22onus": 5415,
      "22atus": 5416,
      "22gpus": 5417,
      "uOi": 5418,
      "Z7": 5419,
      "bY": 5420,
      "eCn": 5421,
      "78b": 5422,
      "ale_of": 5423,
      "_data_region": 5424,
      "22purposes": 5425,
      "22sale_of": 5426,
      "22display_banner": 5427,
      "22sale_of_data_region": 5428,
      "icrow": 5429,
      "destination": 5430,
      "BBJ": 5431,
      "_UA": 5432,
      "31j": 5433,
      "N8C": 5434,
      "Us": 5435,
      "xD": 5436,
      "88t": 5437,
      "823776": 5438,
      "1154823776": 5439,
      "018": 5440,
      "A3F": 5441,
      "O1H": 5442,
      "Pak": 5443,
      "wF": 5444,
      "Ynl": 5445,
      "A0D": 5446,
      "pqw": 5447,
      "HWP": 5448,
      "14T01": 5449,
      "Air": 5450,
      "user_id": 5451,
      "YIM": 5452,
      "O8o": 5453,
      "HB6": 5454,
      "3z": 5455,
      "6E9": 5456,
      "1953": 5457,
      "4970": 5458,
      "2aCP": 5459,
      "LFwibWFcIjoyMTkwMCxcImluXCI6ZmFsc2UsXCJ2YWxcIjpcIj": 5460,
      "H0c": 5461,
      "Kmx": 5462,
      "uXI": 5463,
      "VKo": 5464,
      "7qe": 5465,
      "ZAM": 5466,
      "jGA": 5467,
      "29g": 5468,
      "scK": 5469,
      "OP4": 5470,
      "Oih": 5471,
      "wKZ": 5472,
      "5Bgx": 5473,
      "44055": 5474,
      "F68A": 5475,
      "cu": 5476,
      "i1": 5477,
      "uRX": 5478,
      "cedd": 5479,
      "2BC8A": 5480,
      "FB6686": 5481,
      "EAFB6686": 5482,
      "61D07": 5483,
      "172810580": 5484,
      "CFv": 5485,
      "4272450": 5486,
      "6xqk": 5487,
      "B99EAFB6686": 5488,
      "6E92BC8A": 5489,
      "4405560": 5490,
      "F68A7451": 5491,
      "61D07B99EAFB6686": 5492,
      "6E92BC8A61D07B99EAFB6686": 5493,
      "6E92BC8A61D07B99EAFB6686F68A7451": 5494,
      "Sz": 5495,
      "rk": 5496,
      "Bjbb": 5497,
      "2pqw": 5498,
      "7sw": 5499,
      "ADFC": 5500,
      "Gd": 5501,
      "XQ": 5502,
      "_MY": 5503,
      "bCj": 5504,
      "atm5n": 5505,
      "36MX": 5506,
      "99E88": 5507,
      "86e": 5508,
      "ex7qe": 5509,
      "7BB6": 5510,
      "OSVmk": 5511,
      "87zr": 5512,
      "Acmfc": 5513,
      "apqs": 5514,
      "a0hj": 5515,
      "a957": 5516,
      "98JA": 5517,
      "SeZkj": 5518,
      "FBA3F": 5519,
      "c9YKw": 5520,
      "mtLr6": 5521,
      "0e8J": 5522,
      "WpAX": 5523,
      "ui1M": 5524,
      "8d2aCP": 5525,
      "iSLg": 5526,
      "tLc9YKw": 5527,
      "9BFD": 5528,
      "5E8P9": 5529,
      "Pjf54": 5530,
      "cxYIM": 5531,
      "PR6xqk": 5532,
      "EvGO": 5533,
      "LGlC": 5534,
      "pmv2": 5535,
      "yoGe": 5536,
      "NeNt": 5537,
      "Uyui1M": 5538,
      "V0YZk": 5539,
      "KwDn": 5540,
      "gxnio": 5541,
      "UKxC": 5542,
      "VUgxnio": 5543,
      "TJF8": 5544,
      "3XOSVmk": 5545,
      "LyO1H": 5546,
      "qgQoK": 5547,
      "TQ3XOSVmk": 5548,
      "JGPjGSAQAAFP0hWx": 5549,
      "sG31j": 5550,
      "pzU53": 5551,
      "twJQU": 5552,
      "zKxa": 5553,
      "ywN8C": 5554,
      "jnU9": 5555,
      "p9zKxa": 5556,
      "LbpzU53": 5557,
      "eLWpAX": 5558,
      "ViPe8": 5559,
      "15TPjf54": 5560,
      "Mh0e8J": 5561,
      "0mjnU9": 5562,
      "aQBBJ": 5563,
      "TN5Bgx": 5564,
      "OOiSLg": 5565,
      "BASeZkj": 5566,
      "VhdTJF8": 5567,
      "2BB7BB6": 5568,
      "wLzsG31j": 5569,
      "ZlYFFr": 5570,
      "WZZeLWpAX": 5571,
      "26o87zr": 5572,
      "8EDADFC": 5573,
      "QOjUN1": 5574,
      "3kFVhdTJF8": 5575,
      "Qq0PR6xqk": 5576,
      "wknwLzsG31j": 5577,
      "eCnBASeZkj": 5578,
      "HWPLyO1H": 5579,
      "HB6KwDn": 5580,
      "wKZNeNt": 5581,
      "BjbbyoGe": 5582,
      "2pqwapqs": 5583,
      "atm5nMh0e8J": 5584,
      "36MXBjbbyoGe": 5585,
      "99E883A54": 5586,
      "ex7qeQOjUN1": 5587,
      "AcmfcQ": 5588,
      "a0hjywN8C": 5589,
      "FBA3F9BFD": 5590,
      "mtLr6wKZNeNt": 5591,
      "8d2aCP36MXBjbbyoGe": 5592,
      "5E8P9UKxC": 5593,
      "cxYIM15TPjf54": 5594,
      "EvGOpmv2": 5595,
      "LGlCTQ3XOSVmk": 5596,
      "Uyui1MAcmfcQ": 5597,
      "VUgxnioa0hjywN8C": 5598,
      "JGPjGSAQAAFP0hWxmtLr6wKZNeNt": 5599,
      "twJQU3kFVhdTJF8": 5600,
      "p9zKxaVUgxnioa0hjywN8C": 5601,
      "LbpzU53qgQoK": 5602,
      "ViPe8HB6KwDn": 5603,
      "0mjnU9Qq0PR6xqk": 5604,
      "aQBBJ8d2aCP36MXBjbbyoGe": 5605,
      "TN5BgxeCnBASeZkj": 5606,
      "2BB7BB6FBA3F9BFD": 5607,
      "ZlYFFrWZZeLWpAX": 5608,
      "26o87zr98JA": 5609,
      "8EDADFC99E883A54": 5610,
      "wknwLzsG31jLbpzU53qgQoK": 5611,
      "HWPLyO1HaQBBJ8d2aCP36MXBjbbyoGe": 5612,
      "2pqwapqsOOiSLg": 5613,
      "atm5nMh0e8J88t": 5614,
      "ex7qeQOjUN1p9zKxaVUgxnioa0hjywN8C": 5615,
      "LGlCTQ3XOSVmkV0YZk": 5616,
      "JGPjGSAQAAFP0hWxmtLr6wKZNeNtEvGOpmv2": 5617,
      "twJQU3kFVhdTJF826o87zr98JA": 5618,
      "ViPe8HB6KwDncxYIM15TPjf54": 5619,
      "0mjnU9Qq0PR6xqkHWPLyO1HaQBBJ8d2aCP36MXBjbbyoGe": 5620,
      "TN5BgxeCnBASeZkjZlYFFrWZZeLWpAX": 5621,
      "2BB7BB6FBA3F9BFD8EDADFC99E883A54": 5622,
      "ex7qeQOjUN1p9zKxaVUgxnioa0hjywN8C5E8P9UKxC": 5623,
      "0mjnU9Qq0PR6xqkHWPLyO1HaQBBJ8d2aCP36MXBjbbyoGeex7qeQOjUN1p9zKxaVUgxnioa0hjywN8C5E8P9UKxC": 5624,
      "TN5BgxeCnBASeZkjZlYFFrWZZeLWpAXtwJQU3kFVhdTJF826o87zr98JA": 5625,
      "Rqs": 5626,
      "iX": 5627,
      "gender": 5628,
      "uof": 5629,
      "atl": 5630,
      "ac00": 5631,
      "haM": 5632,
      "22053": 5633,
      "Pakistan": 5634,
      "663684": 5635,
      "USER": 5636,
      "ALNI_MY": 5637,
      "197457": 5638,
      "down": 5639,
      "23243": 5640,
      "1a29": 5641,
      "ZLh": 5642,
      "Item": 5643,
      "YzQ": 5644,
      "b047": 5645,
      "rt1": 5646,
      "b27d": 5647,
      "q4": 5648,
      "96eb": 5649,
      "f27f": 5650,
      "FA0D": 5651,
      "b231": 5652,
      "22900": 5653,
      "18FB": 5654,
      "71CB": 5655,
      "C9B1": 5656,
      "E960C": 5657,
      "886F": 5658,
      "0707FA0D": 5659,
      "A2D886F": 5660,
      "18FB0707FA0D": 5661,
      "71CB18FB0707FA0D": 5662,
      "C9B1E960C": 5663,
      "71CB18FB0707FA0DC9B1E960C": 5664,
      "71CB18FB0707FA0DC9B1E960CA2D886F": 5665,
      "TUAv": 5666,
      "Z0A": 5667,
      "ueVo": 5668,
      "9961": 5669,
      "3957": 5670,
      "WwBx": 5671,
      "3mbt": 5672,
      "4Vkg": 5673,
      "8uOi": 5674,
      "QVji": 5675,
      "f86d": 5676,
      "iWxl": 5677,
      "pers": 5678,
      "chuRX": 5679,
      "de5a": 5680,
      "ad8a": 5681,
      "36xAM": 5682,
      "abRt": 5683,
      "27a957": 5684,
      "afZ6": 5685,
      "07s2": 5686,
      "3BXfO": 5687,
      "53R2a": 5688,
      "_geo": 5689,
      "usyB": 5690,
      "D7no": 5691,
      "777": 5692,
      "KHWw": 5693,
      "e02b": 5694,
      "ddcfd": 5695,
      "elu59": 5696,
      "f8Lt": 5697,
      "e6rT": 5698,
      "0dscK": 5699,
      "9cBw": 5700,
      "7313": 5701,
      "d6Yg": 5702,
      "STd4": 5703,
      "upvEw": 5704,
      "35elu59": 5705,
      "8184f": 5706,
      "dcxl": 5707,
      "m1vpk": 5708,
      "ARwbn": 5709,
      "f7KUV": 5710,
      "Mkdn": 5711,
      "tLCFv": 5712,
      "A0Ynl": 5713,
      "FQKU": 5714,
      "MI2o": 5715,
      "r6aL": 5716,
      "cxPl": 5717,
      "Crne": 5718,
      "CrD2": 5719,
      "ysTb": 5720,
      "MlLO": 5721,
      "VHPjGSAQAA": 5722,
      "d7Xk": 5723,
      "d7NEx": 5724,
      "ftZLh": 5725,
      "khHY": 5726,
      "A629g": 5727,
      "qsBy": 5728,
      "j1iSV": 5729,
      "By07s2": 5730,
      "3R53R2a": 5731,
      "kqxk": 5732,
      "JJO8o": 5733,
      "knZP": 5734,
      "T2KNO": 5735,
      "VUrr": 5736,
      "PE4Vkg": 5737,
      "7aCrD2": 5738,
      "MnWp": 5739,
      "aI3R53R2a": 5740,
      "Nkkqxk": 5741,
      "YsqsBy": 5742,
      "bXade": 5743,
      "V9Rqs": 5744,
      "HL8P": 5745,
      "SHkZ": 5746,
      "AOoZ": 5747,
      "CGrQ": 5748,
      "IEWr": 5749,
      "Fkzk": 5750,
      "RgAOoZ": 5751,
      "sGoW": 5752,
      "1S9cBw": 5753,
      "rqwO": 5754,
      "KjWjD": 5755,
      "Gkvo": 5756,
      "XnOih": 5757,
      "1GusyB": 5758,
      "Yo3o": 5759,
      "DYp2": 5760,
      "0tARwbn": 5761,
      "3kXW": 5762,
      "7zVUrr": 5763,
      "Ll0d1": 5764,
      "uuV9Rqs": 5765,
      "pEcj5": 5766,
      "i2JkR": 5767,
      "92516": 5768,
      "JaBy07s2": 5769,
      "Jf35elu59": 5770,
      "8vM0dscK": 5771,
      "FaFkzk": 5772,
      "F7Jf35elu59": 5773,
      "uVMI2o": 5774,
      "vXuVMI2o": 5775,
      "am00dcxl": 5776,
      "5pGkvo": 5777,
      "3CIOP4": 5778,
      "Um9e6rT": 5779,
      "8v0i2JkR": 5780,
      "1a3ddcfd": 5781,
      "PaOd7NEx": 5782,
      "Yr6knZP": 5783,
      "moo1S9cBw": 5784,
      "XJ1tLCFv": 5785,
      "HzOLl0d1": 5786,
      "uKSysTb": 5787,
      "EXOVm": 5788,
      "AZySTd4": 5789,
      "ST4ueVo": 5790,
      "2e31de5a": 5791,
      "YAAQH5EkFwVHPjGSAQAA": 5792,
      "78bXJ1tLCFv": 5793,
      "H0cAZySTd4": 5794,
      "KmxYsqsBy": 5795,
      "uXIr6aL": 5796,
      "ZAMiWxl": 5797,
      "jGAi": 5798,
      "uofRh": 5799,
      "haMUm9e6rT": 5800,
      "96eb8184f": 5801,
      "TUAvuXIr6aL": 5802,
      "Z0A7sw": 5803,
      "WwBxmoo1S9cBw": 5804,
      "3mbt5pGkvo": 5805,
      "8uOiMnWp": 5806,
      "QVji7aCrD2": 5807,
      "chuRXf8Lt": 5808,
      "36xAMST4ueVo": 5809,
      "abRtYo3o": 5810,
      "27a9571e": 5811,
      "afZ6rqwO": 5812,
      "3BXfOabRtYo3o": 5813,
      "D7noMlLO": 5814,
      "KHWwDYp2": 5815,
      "d6YgCGrQ": 5816,
      "upvEwKHWwDYp2": 5817,
      "m1vpkrt1": 5818,
      "f7KUV8uOiMnWp": 5819,
      "MkdnHzOLl0d1": 5820,
      "A0YnlCrne": 5821,
      "FQKUftZLh": 5822,
      "cxPlhaMUm9e6rT": 5823,
      "d7XkIJ": 5824,
      "khHYcxPlhaMUm9e6rT": 5825,
      "A629gsGoW": 5826,
      "j1iSV8v0i2JkR": 5827,
      "JJO8oFaFkzk": 5828,
      "T2KNObXade": 5829,
      "PE4VkgHVo": 5830,
      "aI3R53R2a4b": 5831,
      "Nkkqxkd6YgCGrQ": 5832,
      "HL8PNkkqxkd6YgCGrQ": 5833,
      "SHkZ36xAMST4ueVo": 5834,
      "IEWr1GusyB": 5835,
      "RgAOoZupvEwKHWwDYp2": 5836,
      "KjWjDafZ6rqwO": 5837,
      "XnOihPaOd7NEx": 5838,
      "0tARwbnF7Jf35elu59": 5839,
      "3kXWA0YnlCrne": 5840,
      "uuV9Rqs3CIOP4": 5841,
      "JaBy07s2T2KNObXade": 5842,
      "8vM0dscKaI3R53R2a4b": 5843,
      "vXuVMI2oEXOVm": 5844,
      "am00dcxlKjWjDafZ6rqwO": 5845,
      "1a3ddcfdb047": 5846,
      "Yr6knZPWwBxmoo1S9cBw": 5847,
      "uKSysTbIEWr1GusyB": 5848,
      "YAAQH5EkFwVHPjGSAQAAZAMiWxl": 5849,
      "78bXJ1tLCFvJJO8oFaFkzk": 5850,
      "H0cAZySTd4nK": 5851,
      "KmxYsqsByuuV9Rqs3CIOP4": 5852,
      "96eb8184f1e0": 5853,
      "TUAvuXIr6aL78bXJ1tLCFvJJO8oFaFkzk": 5854,
      "3mbt5pGkvoXnOihPaOd7NEx": 5855,
      "QVji7aCrD2MkdnHzOLl0d1": 5856,
      "chuRXf8LtkhHYcxPlhaMUm9e6rT": 5857,
      "3BXfOabRtYo3o3mbt5pGkvoXnOihPaOd7NEx": 5858,
      "D7noMlLO3BXfOabRtYo3o3mbt5pGkvoXnOihPaOd7NEx": 5859,
      "FQKUftZLh8vM0dscKaI3R53R2a4b": 5860,
      "A629gsGoWuKSysTbIEWr1GusyB": 5861,
      "j1iSV8v0i2JkRZ0A7sw": 5862,
      "HL8PNkkqxkd6YgCGrQf7KUV8uOiMnWp": 5863,
      "SHkZ36xAMST4ueVoYr6knZPWwBxmoo1S9cBw": 5864,
      "RgAOoZupvEwKHWwDYp2uofRh": 5865,
      "0tARwbnF7Jf35elu59d7XkIJ": 5866,
      "3kXWA0YnlCrneH0cAZySTd4nK": 5867,
      "JaBy07s2T2KNObXadeHL8PNkkqxkd6YgCGrQf7KUV8uOiMnWp": 5868,
      "am00dcxlKjWjDafZ6rqwO0tARwbnF7Jf35elu59d7XkIJ": 5869,
      "YAAQH5EkFwVHPjGSAQAAZAMiWxlA629gsGoWuKSysTbIEWr1GusyB": 5870,
      "KmxYsqsByuuV9Rqs3CIOP4SHkZ36xAMST4ueVoYr6knZPWwBxmoo1S9cBw": 5871,
      "TUAvuXIr6aL78bXJ1tLCFvJJO8oFaFkzkam00dcxlKjWjDafZ6rqwO0tARwbnF7Jf35elu59d7XkIJ": 5872,
      "QVji7aCrD2MkdnHzOLl0d1D7noMlLO3BXfOabRtYo3o3mbt5pGkvoXnOihPaOd7NEx": 5873,
      "YAAQH5EkFwVHPjGSAQAAZAMiWxlA629gsGoWuKSysTbIEWr1GusyBchuRXf8LtkhHYcxPlhaMUm9e6rT": 5874,
      "KmxYsqsByuuV9Rqs3CIOP4SHkZ36xAMST4ueVoYr6knZPWwBxmoo1S9cBwJaBy07s2T2KNObXadeHL8PNkkqxkd6YgCGrQf7KUV8uOiMnWp": 5875,
      "QVji7aCrD2MkdnHzOLl0d1D7noMlLO3BXfOabRtYo3o3mbt5pGkvoXnOihPaOd7NExPE4VkgHVo": 5876,
      "_con": 5877,
      "47424": 5878,
      "fd11d": 5879,
      "23435089": 5880,
      "25821": 5881,
      "oeu172810580": 5882,
      "9464r0": 5883,
      "04723243": 5884,
      "2343508934": 5885,
      "oeu1728105809464r0": 5886,
      "047232432343508934": 5887,
      "01925b22": 5888,
      "951f": 5889,
      "Ps": 5890,
      "221925b2244": 5891,
      "8092516": 5892,
      "24e7d": 5893,
      "11a5": 5894,
      "0742b": 5895,
      "50182": 5896,
      "445424": 5897,
      "fbae86": 5898,
      "5e11a5": 5899,
      "63360": 5900,
      "63805": 5901,
      "5df07": 5902,
      "a3b27d": 5903,
      "1a7313": 5904,
      "0eac00": 5905,
      "1728105811": 5906,
      "82322900": 5907,
      "1791953": 5908,
      "6404779": 5909,
      "217837": 5910,
      "805075001f06d0093c": 5911,
      "11850182": 5912,
      "6478445424": 5913,
      "fd11ee00": 5914,
      "1728105823172": 5915,
      "1925b22445e11a5": 5916,
      "82d911efaa0": 5917,
      "82d911ef85e": 5918,
      "1759641822053": 5919,
      "05725821": 5920,
      "15082d911ef85e": 5921,
      "1728113015": 5922,
      "9f3fbae86": 5923,
      "78824e7d": 5924,
      "2adcedd": 5925,
      "143011850182": 5926,
      "467682322900": 5927,
      "8073a3b27d": 5928,
      "79265937": 5929,
      "6083467682322900": 5930,
      "dfe805075001f06d0093c": 5931,
      "8210063360": 5932,
      "7C34217837": 5933,
      "6636848210063360": 5934,
      "19745779265937": 5935,
      "1a29dfe805075001f06d0093c": 5936,
      "e02b05725821": 5937,
      "4742419745779265937": 5938,
      "fd11d15082d911ef85e": 5939,
      "01925b220eac00": 5940,
      "221925b22445df07": 5941,
      "80925166478445424": 5942,
      "0742b2adcedd": 5943,
      "63805143011850182": 5944,
      "1a73131a29dfe805075001f06d0093c": 5945,
      "1728105811629": 5946,
      "179195340": 5947,
      "64047794742419745779265937": 5948,
      "fd11ee0082d911efaa0": 5949,
      "1728113015s": 5950,
      "9f3fbae863957": 5951,
      "8073a3b27d14b": 5952,
      "6083467682322900769": 5953,
      "7C3421783764047794742419745779265937": 5954,
      "fd11d15082d911ef85e8073a3b27d14b": 5955,
      "01925b220eac001a73131a29dfe805075001f06d0093c": 5956,
      "0742b2adcedd9b": 5957,
      "fd11ee0082d911efaa09f3fbae863957": 5958,
      "7C34217837640477947424197457792659378617": 5959,
      "Ke": 5960,
      "I2Y": 5961,
      "pj": 5962,
      "XD": 5963,
      "Lj": 5964,
      "Fu": 5965,
      "Hm": 5966,
      "vO": 5967,
      "_targeting": 5968,
      "5I": 5969,
      "_PB": 5970,
      "indi": 5971,
      "9k": 5972,
      "\\\"}\"},": 5973,
      "22num": 5974,
      "17282058": 5975,
      "PK_PB": 5976,
      "alpindi": 5977,
      "Rawalpindi": 5978,
      "5526": 5979,
      "hF": 5980,
      "_2": 5981,
      "f5c": 5982,
      "3P": 5983,
      "3c77": 5984,
      "View": 5985,
      "rz": 5986,
      "vS": 5987,
      "277": 5988,
      "3d7": 5989,
      "bc_in": 5990,
      "viewport": 5991,
      "UrlCache": 5992,
      "XSTJ": 5993,
      "QzAwTn": 5994,
      "validateUrlCache": 5995,
      "bc_invalidateUrlCache": 5996,
      "bc_invalidateUrlCache_targeting": 5997,
      "BL": 5998,
      "Xo": 5999,
      "cial": 6000,
      "CfDJ": 6001,
      "4A": 6002,
      "n6": 6003,
      "yj": 6004,
      "edra": 6005,
      "545d": 6006,
      "hat55": 6007,
      "mueedra": 6008,
      "mueedrahat55": 6009,
      "7bSK": 6010,
      "ZV7bSK": 6011,
      "FR15T": 6012,
      "8BZV7bSK": 6013,
      "VKoJ5": 6014,
      "CfDJ8BZV7bSK": 6015,
      "acy": 6016,
      "52373": 6017,
      "userId": 6018,
      "Retur": 6019,
      "5e3b": 6020,
      "e35e3b": 6021,
      "d95526": 6022,
      "51752373": 6023,
      "825e35e3b": 6024,
      "35b545d": 6025,
      "4664d95526": 6026,
      "3c7751752373": 6027,
      "825e35e3bc1": 6028,
      "35b545d3c7751752373": 6029,
      "4664d95526825e35e3bc1": 6030,
      "35b545d3c77517523734664d95526825e35e3bc1": 6031,
      "_F": 6032,
      "228114260120504": 6033,
      "ZCI6": 6034,
      "wh": 6035,
      "Iu": 6036,
      "17288700": 6037,
      "R6": 6038,
      "Commer": 6039,
      "eD": 6040,
      "Yh": 6041,
      "_bb": 6042,
      "cox": 6043,
      "17209626": 6044,
      "home": 6045,
      "394": 6046,
      "__Host": 6047,
      "B5": 6048,
      "Ea": 6049,
      "_ac_user": 6050,
      "_bb_ac_user": 6051,
      "1256": 6052,
      "904": 6053,
      "Gz": 6054,
      "fed": 6055,
      "ages": 6056,
      "ampl": 6057,
      "387": 6058,
      "t4": 6059,
      "itle": 6060,
      "rece": 6061,
      "8886": 6062,
      "fc53": 6063,
      "ault": 6064,
      "g3": 6065,
      "CW": 6066,
      "rrv2": 6067,
      "ide": 6068,
      "8744": 6069,
      "_user_id": 6070,
      "N7": 6071,
      "RZ": 6072,
      "ids": 6073,
      "1728377": 6074,
      "oD": 6075,
      "135": 6076,
      "Y2hlb": 6077,
      "Os": 6078,
      "UZ": 6079,
      "KbA": 6080,
      "Ga0": 6081,
      "height": 6082,
      "4805": 6083,
      "4497": 6084,
      "Ad": 6085,
      "A64": 6086,
      "mu": 6087,
      "VGc1": 6088,
      "y8": 6089,
      "z8": 6090,
      "132": 6091,
      "m1a": 6092,
      "TART": 6093,
      "TVdZ": 6094,
      "120": 6095,
      "aQzAwTn": 6096,
      "90ee": 6097,
      "unct": 6098,
      "F0TUR": 6099,
      "dFpq": 6100,
      "UWm1a": 6101,
      "JtTW1": 6102,
      "4yRm1": 6103,
      "pBeEx": 6104,
      "NV1F0TUR": 6105,
      "NV1JtTW1": 6106,
      "dWlkPU5UWm1a": 6107,
      "WTRaQzAwTn": 6108,
      "XSTJNV1F0TUR": 6109,
      "Ga04yRm1": 6110,
      "VGc1TVdZ": 6111,
      "dFpqWTRaQzAwTn": 6112,
      "pBeExXSTJNV1F0TUR": 6113,
      "NV1JtTW1KbA": 6114,
      "dWlkPU5UWm1aVGc1TVdZ": 6115,
      "Ga04yRm1NV1JtTW1KbA": 6116,
      "dFpqWTRaQzAwTnpBeExXSTJNV1F0TUR": 6117,
      "dWlkPU5UWm1aVGc1TVdZdFpqWTRaQzAwTnpBeExXSTJNV1F0TUR": 6118,
      "dWlkPU5UWm1aVGc1TVdZdFpqWTRaQzAwTnpBeExXSTJNV1F0TURGa04yRm1NV1JtTW1KbA": 6119,
      "network": 6120,
      "VB": 6121,
      "W1": 6122,
      "zq": 6123,
      "1a53d": 6124,
      "c77fc53": 6125,
      "afee4497": 6126,
      "c77fc531a53d": 6127,
      "ed_items": 6128,
      "22last_carted_items": 6129,
      "Md": 6130,
      "272": 6131,
      "loh": 6132,
      "V4": 6133,
      "vx": 6134,
      "383": 6135,
      "activity": 6136,
      "Vu": 6137,
      "LL": 6138,
      "su": 6139,
      "817": 6140,
      "R3": 6141,
      "over": 6142,
      "_profil": 6143,
      "RO": 6144,
      "221663746": 6145,
      "ing_session_id": 6146,
      "_profiling_session_id": 6147,
      "cD": 6148,
      "response": 6149,
      "3A17285679": 6150,
      "384": 6151,
      "LFwibWFcIjoyMTkwMCxcImluXCI6ZmFsc2UsXCJ2YWxcIjpcIm": 6152,
      "5w": 6153,
      "UC": 6154,
      "jitney_client": 6155,
      "Ts": 6156,
      "2945": 6157,
      "5BB": 6158,
      "6gO89UNb1_kzaHSmyewka9gpdjgwS2BHP": 6159,
      "9eb": 6160,
      "W0": 6161,
      "H9": 6162,
      "onal": 6163,
      "unified": 6164,
      "EAT": 6165,
      "d1b": 6166,
      "pare": 6167,
      "2O": 6168,
      "Z1": 6169,
      "1728868635": 6170,
      "Bu": 6171,
      "baz": 6172,
      "address": 6173,
      "264": 6174,
      "nI": 6175,
      "lO": 6176,
      "mS": 6177,
      "IiwiZ": 6178,
      "FT": 6179,
      "lt": 6180,
      "3Cdiv": 6181,
      "ado": 6182,
      "var": 6183,
      "1444": 6184,
      "_non": 6185,
      "khK": 6186,
      "server": 6187,
      "884": 6188,
      "li_non": 6189,
      "ef1": 6190,
      "pbjs_unified": 6191,
      "pbjs_li_non": 6192,
      "22TDID_": 6193,
      "pbjs_unifiedID": 6194,
      "pbjs_li_nonid": 6195,
      "agment": 6196,
      "1662477": 6197,
      "3D18391804": 6198,
      "3B18391804": 6199,
      "ignup": 6200,
      "3D16129910": 6201,
      "cpsegs": 6202,
      "3B16129910": 6203,
      "Rc": 6204,
      "5Cetc": 6205,
      "YL": 6206,
      "Po": 6207,
      "602": 6208,
      "kg": 6209,
      "Jb": 6210,
      "ZN": 6211,
      "rsk": 6212,
      "1660569669": 6213,
      "xm": 6214,
      "unction": 6215,
      "E1F": 6216,
      "ya": 6217,
      "BY": 6218,
      "yX": 6219,
      "hbH": 6220,
      "........": 6221,
      "8a0": 6222,
      "5P": 6223,
      "fT": 6224,
      "model": 6225,
      "eyJpZCI6": 6226,
      "compare": 6227,
      "u00042": 6228,
      "329": 6229,
      "3732": 6230,
      "4u": 6231,
      "dD": 6232,
      "0k": 6233,
      "LFwibWFcIjoyMTkwMCxcImluXCI6ZmFsc2UsXCJ2YWxcIjpcImI2Y": 6234,
      "961": 6235,
      "production": 6236,
      "_li": 6237,
      "ables": 6238,
      "2214": 6239,
      "Eh": 6240,
      "boys": 6241,
      "253D1": 6242,
      "304": 6243,
      "rame": 6244,
      "22bb": 6245,
      "Gc": 6246,
      "arp": 6247,
      "qT": 6248,
      "enter": 6249,
      "677": 6250,
      "navsrc": 6251,
      "ishloh": 6252,
      "ishlohim": 6253,
      "_code": 6254,
      "36a": 6255,
      "rp": 6256,
      "550": 6257,
      "Ae": 6258,
      "177": 6259,
      "default": 6260,
      "I9": 6261,
      "10100": 6262,
      "136": 6263,
      "TL": 6264,
      "gc": 6265,
      "Home": 6266,
      "3W": 6267,
      "ge": 6268,
      "UTH": 6269,
      "Ru": 6270,
      "gy": 6271,
      "DM": 6272,
      "_hjSession": 6273,
      "988": 6274,
      "Xq": 6275,
      "jo": 6276,
      "tid": 6277,
      "=../../../../../../../../": 6278,
      "uto": 6279,
      "BZ": 6280,
      "EE": 6281,
      "ntv": 6282,
      "dd6": 6283,
      "k8": 6284,
      "22BMM69342": 6285,
      "\\\":{": 6286,
      "Zh": 6287,
      "xS": 6288,
      "ine": 6289,
      "__cq_bc": 6290,
      "22bbvc": 6291,
      "PL": 6292,
      "mishlohim": 6293,
      "=.": 6294,
      "we": 6295,
      "iming": 6296,
      "Sess": 6297,
      "qK": 6298,
      "cto": 6299,
      "Commercial": 6300,
      "252520": 6301,
      "JTJC": 6302,
      "Edj": 6303,
      "5c6": 6304,
      "GF0": 6305,
      "bw": 6306,
      "LFz": 6307,
      "22f": 6308,
      "259": 6309,
      "Wn": 6310,
      "YAAQFZ": 6311,
      "QK": 6312,
      "Ef": 6313,
      "i0": 6314,
      "2222": 6315,
      "7w": 6316,
      "HZZ0": 6317,
      "I5": 6318,
      "edi": 6319,
      "chil": 6320,
      "01CSAQAA": 6321,
      ")~(": 6322,
      "D6": 6323,
      "_mstore": 6324,
      "attntv": 6325,
      "attntv_mstore": 6326,
      "gEI": 6327,
      "rele": 6328,
      "cket": 6329,
      "C3": 6330,
      "Gv": 6331,
      "_bundle": 6332,
      "yl": 6333,
      "993817": 6334,
      "12377": 6335,
      "1_10100": 6336,
      "1_1183859": 6337,
      "1256777": 6338,
      "1237723": 6339,
      "1_1010049": 6340,
      "project": 6341,
      "_time": 6342,
      "1Q": 6343,
      "Rsk": 6344,
      "memory": 6345,
      "113": 6346,
      "iOn": 6347,
      "pos": 6348,
      "ience": 6349,
      "Ty": 6350,
      "u6": 6351,
      "edding": 6352,
      "ivals": 6353,
      "cto_bundle": 6354,
      "ecid": 6355,
      "EkF": 6356,
      "NY": 6357,
      "KO": 6358,
      "336": 6359,
      "Review": 6360,
      "Vc": 6361,
      "trace": 6362,
      "Ud": 6363,
      "gt": 6364,
      "zY2hlb": 6365,
      "enable": 6366,
      "20St": 6367,
      "IZ": 6368,
      "YAAQFZEkF": 6369,
      "vR": 6370,
      "c0x": 6371,
      "EY": 6372,
      "_uid": 6373,
      "visitor": 6374,
      "mhwM": 6375,
      "1051": 6376,
      "d4b": 6377,
      "KRT": 6378,
      "Pu": 6379,
      "click": 6380,
      "dC": 6381,
      "pH": 6382,
      "U7": 6383,
      "XY": 6384,
      "attntv_mstore_email": 6385,
      "Ijp7": 6386,
      "clothing": 6387,
      "Res": 6388,
      "vh": 6389,
      "002": 6390,
      "188": 6391,
      "5R": 6392,
      "arr": 6393,
      "Ue": 6394,
      "State": 6395,
      "fde": 6396,
      "rCookie": 6397,
      "1903": 6398,
      "lastRsk": 6399,
      "Afj": 6400,
      "xRunCookie": 6401,
      "rskxRunCookie": 6402,
      "lastRskxRun": 6403,
      "Sharp": 6404,
      "92506": 6405,
      "group": 6406,
      "gist": 6407,
      "eba": 6408,
      "dW50": 6409,
      "ass": 6410,
      "2218": 6411,
      "aWQ": 6412,
      "_23": 6413,
      "w3": 6414,
      "Fs": 6415,
      "O5": 6416,
      "oB": 6417,
      "8m": 6418,
      "PM": 6419,
      "en_in": 6420,
      "919": 6421,
      "0357": 6422,
      "NvdW50": 6423,
      "A6B": 6424,
      "ond": 6425,
      "shg": 6426,
      "pW": 6427,
      "7j": 6428,
      "qt": 6429,
      "JN": 6430,
      "v32": 6431,
      "hZf": 6432,
      "20Microw": 6433,
      "Txk": 6434,
      "bs": 6435,
      "530": 6436,
      "sen": 6437,
      "Edit": 6438,
      "LHk": 6439,
      "033": 6440,
      "TOK": 6441,
      "0088": 6442,
      "body": 6443,
      "17240516": 6444,
      "20241010": 6445,
      "SO": 6446,
      "mw": 6447,
      "Nzcr": 6448,
      "TOKEN": 6449,
      "Hd": 6450,
      "SS0H": 6451,
      "915": 6452,
      "u5": 6453,
      "WphZf": 6454,
      "jgLHk": 6455,
      "SS0HWphZf": 6456,
      "SS0HWphZfjgLHk": 6457,
      "Womens": 6458,
      "here": 6459,
      "907": 6460,
      "LK": 6461,
      "q1": 6462,
      "10a": 6463,
      "9h": 6464,
      "Y8": 6465,
      "22https": 6466,
      "C9P": 6467,
      "2Z": 6468,
      "IF": 6469,
      "rj": 6470,
      "checkout_event": 6471,
      "ksp": 6472,
      "9i": 6473,
      "rb": 6474,
      "bUS": 6475,
      "w6": 6476,
      "curr": 6477,
      "segment": 6478,
      "gister": 6479,
      "XG": 6480,
      "YV": 6481,
      "variables": 6482,
      "d64": 6483,
      "rooms": 6484,
      "Cs": 6485,
      "1p": 6486,
      "597": 6487,
      "personal": 6488,
      "datado": 6489,
      "datadome": 6490,
      "Gg": 6491,
      "iOjAsIn": 6492,
      "recommended": 6493,
      "rom": 6494,
      "Thu": 6495,
      "3Av": 6496,
      "ox8J": 6497,
      "TAUnique": 6498,
      "u00caJ": 6499,
      "bUSTxk": 6500,
      "ox8JbUSTxk": 6501,
      "Gb": 6502,
      "842": 6503,
      "335": 6504,
      "1728205906": 6505,
      "hf": 6506,
      "ail": 6507,
      "M8": 6508,
      "Qk": 6509,
      "ku": 6510,
      "Path": 6511,
      "c4d": 6512,
      "NT_": 6513,
      "54626": 6514,
      "1728205854626": 6515,
      "B2": 6516,
      "nr": 6517,
      "Tu": 6518,
      "upon": 6519,
      "samp": 6520,
      "079": 6521,
      "aph": 6522,
      "ae5": 6523,
      "ics_": 6524,
      "m_c": 6525,
      "excee": 6526,
      "source_": 6527,
      "JO": 6528,
      "sx": 6529,
      "_bk": 6530,
      "1031": 6531,
      "698": 6532,
      "Cq": 6533,
      "Sb": 6534,
      "_fbp_bk": 6535,
      "Uh": 6536,
      "XV": 6537,
      "km": 6538,
      "9L": 6539,
      "nl": 6540,
      "resource": 6541,
      "379": 6542,
      "_109": 6543,
      "7C9": 6544,
      "Pt": 6545,
      "KZv": 6546,
      "5zbm": 6547,
      "93cGx": 6548,
      "5zbm93cGx": 6549,
      "956": 6550,
      "HF": 6551,
      "KE": 6552,
      "collections": 6553,
      "ifc": 6554,
      "nO": 6555,
      "yW": 6556,
      "m1x": 6557,
      "64425": 6558,
      "1_1164425": 6559,
      "1444143": 6560,
      "fW": 6561,
      "267": 6562,
      "OUNT": 6563,
      "0F": 6564,
      "dresses": 6565,
      "280": 6566,
      "##": 6567,
      "AZ": 6568,
      "130": 6569,
      "OKI": 6570,
      "screen_": 6571,
      "859": 6572,
      "Exp": 6573,
      "YAAQ3gyrc": 6574,
      "Uv": 6575,
      "mj": 6576,
      "a3a0": 6577,
      "legacy": 6578,
      "m4_9ck_": 6579,
      "Ha": 6580,
      "\"\\\"\\\"\",": 6581,
      "FPS": 6582,
      "zo": 6583,
      "4514": 6584,
      "wide": 6585,
      "dren": 6586,
      "c33": 6587,
      "da9": 6588,
      "Cy": 6589,
      "1T": 6590,
      "46D": 6591,
      "3B16995249": 6592,
      "cookie_": 6593,
      "plet": 6594,
      "50Z": 6595,
      "bO": 6596,
      "comm": 6597,
      "_method": 6598,
      "ugh": 6599,
      "tags": 6600,
      "926": 6601,
      "c3c": 6602,
      "analytics_": 6603,
      "bluecoreNV": 6604,
      "1728205906904": 6605,
      "067": 6606,
      "TRA": 6607,
      "leave": 6608,
      "_meta": 6609,
      "personalization": 6610,
      "SAS": 6611,
      "247": 6612,
      "iR": 6613,
      "a837": 6614,
      "ZSI6Im": 6615,
      "5048": 6616,
      "96c": 6617,
      "8946": 6618,
      "01j": 6619,
      "0n": 6620,
      "PT": 6621,
      "ature": 6622,
      "anonical": 6623,
      "0Q50Z": 6624,
      "QX0Q50Z": 6625,
      "QX0Q50ZC9P": 6626,
      "Wm": 6627,
      "ool": 6628,
      "anonical_": 6629,
      "5q": 6630,
      "TASession": 6631,
      "oldF": 6632,
      "V2ID": 6633,
      "oldFirst": 6634,
      "fz": 6635,
      "lq": 6636,
      "_sid": 6637,
      "1036": 6638,
      "194": 6639,
      "Facet": 6640,
      "fv": 6641,
      "199": 6642,
      "IST": 6643,
      "ym": 6644,
      "eff": 6645,
      "YAAQzK": 6646,
      "YAAQzK8s": 6647,
      "deviceId": 6648,
      "art_time": 6649,
      "lang": 6650,
      "19d6": 6651,
      "253Abrowse": 6652,
      "173de": 6653,
      "MUV": 6654,
      "TE": 6655,
      "b140": 6656,
      "n2": 6657,
      "860": 6658,
      "_auto": 6659,
      "173de591": 6660,
      "b140173de591": 6661,
      ",%": 6662,
      "wr": 6663,
      "__cf": 6664,
      "__cf_bm": 6665,
      "603": 6666,
      "89b": 6667,
      "20onkey": 6668,
      "cdm_c": 6669,
      "_dcdm_c": 6670,
      "_ga_QX0Q50ZC9P": 6671,
      "_lc2_fpi_meta": 6672,
      "pbjs_sharedId_cst": 6673,
      "_li_dcdm_c": 6674,
      "transform": 6675,
      "eed": 6676,
      "EJ": 6677,
      "ead": 6678,
      "user_": 6679,
      "43c": 6680,
      "PJ": 6681,
      "RI": 6682,
      "v5": 6683,
      "ste": 6684,
      "a400": 6685,
      "Query": 6686,
      "221": 6687,
      "W2": 6688,
      "ao": 6689,
      "Sn": 6690,
      "Vd": 6691,
      "6ov": 6692,
      "PIX": 6693,
      "ion_": 6694,
      "636": 6695,
      "H_": 6696,
      "s_4514": 6697,
      "59227": 6698,
      "TIME": 6699,
      "4658946": 6700,
      "1728818646545": 6701,
      "s_451459227": 6702,
      "s_4514592274658946": 6703,
      "1o": 6704,
      "G_": 6705,
      "Yb": 6706,
      "4D": 6707,
      "1534": 6708,
      "b6b9": 6709,
      "GBP": 6710,
      "custom": 6711,
      "Server": 6712,
      "20onbe": 6713,
      "3A1728567": 6714,
      "ZH": 6715,
      "proto": 6716,
      "sdk_version": 6717,
      "KRTB": 6718,
      "sf": 6719,
      "20here": 6720,
      "reatment": 6721,
      "experience": 6722,
      "USER_ID": 6723,
      "Category": 6724,
      "86bf": 6725,
      "FV": 6726,
      "ea6": 6727,
      "20me": 6728,
      "1704": 6729,
      "WB": 6730,
      "pO": 6731,
      "ira": 6732,
      "pixle": 6733,
      "9f0": 6734,
      "Hk": 6735,
      "a59": 6736,
      "3D0": 6737,
      "557": 6738,
      "4b43": 6739,
      "df4c": 6740,
      "7ae": 6741,
      "sJ": 6742,
      "URRE": 6743,
      "pixlee_": 6744,
      "URRENT_": 6745,
      "9af": 6746,
      "xn": 6747,
      "005": 6748,
      "59204": 6749,
      "5ba5": 6750,
      "5f86bf": 6751,
      "PENT": 6752,
      "E_USER_ID": 6753,
      "LEE_USER_ID": 6754,
      "22CURRENT_": 6755,
      "62759204": 6756,
      "cookie_legacy": 6757,
      "analytics_cookie_legacy": 6758,
      "PIXLEE_USER_ID": 6759,
      "pixlee_analytics_cookie_legacy": 6760,
      "5f86bf67": 6761,
      "22CURRENT_PIXLEE_USER_ID": 6762,
      "627592045ba5": 6763,
      "22TIME": 6764,
      "38270": 6765,
      "_SPENT": 6766,
      "_2338270": 6767,
      "22TIME_SPENT": 6768,
      "Qg": 6769,
      "cf8": 6770,
      "6I": 6771,
      "y4": 6772,
      "destinations_": 6773,
      "17283759": 6774,
      "H2": 6775,
      "Hq": 6776,
      "Q2XCJ9In0": 6777,
      "Bb": 6778,
      "doc": 6779,
      "ain": 6780,
      "yper": 6781,
      "HZZ03799": 6782,
      "Io": 6783,
      "250": 6784,
      "paste": 6785,
      "AAAAAAAAAAAAAAAA": 6786,
      "22enable": 6787,
      "2917": 6788,
      "ebf": 6789,
      "ument": 6790,
      "ancel": 6791,
      "_app_id": 6792,
      "Ic": 6793,
      "3Edrag": 6794,
      "flex_destinations_": 6795,
      "canonical_": 6796,
      "cancel": 6797,
      "Action": 6798,
      "iframe": 6799,
      "840": 6800,
      "BCK": 6801,
      "560088": 6802,
      "sM": 6803,
      "af3c": 6804,
      "NoZW": 6805,
      "1534560088": 6806,
      "hyper": 6807,
      "hyperloop": 6808,
      "lw": 6809,
      "1720537": 6810,
      "011": 6811,
      "qx": 6812,
      "2010": 6813,
      "Ar": 6814,
      "md": 6815,
      "7Bcolor": 6816,
      "navigate": 6817,
      "Last": 6818,
      "U6gO89UNb1_kzaHSmyewka9gpdjgwS2BHP": 6819,
      "3A4": 6820,
      "flex_destinations_search": 6821,
      "retur": 6822,
      "_P": 6823,
      "yK": 6824,
      "3Acolor": 6825,
      "deactivate": 6826,
      "ac6": 6827,
      "3Edrop": 6828,
      "forec": 6829,
      "20onbeforec": 6830,
      "NoZW1h": 6831,
      "286": 6832,
      "2b5": 6833,
      "bucket": 6834,
      "yx": 6835,
      "154": 6836,
      "880": 6837,
      "c1OD": 6838,
      "TAwT": 6839,
      "search_mode": 6840,
      "009": 6841,
      "aD": 6842,
      "relev": 6843,
      "anonymous_id": 6844,
      "Kg": 6845,
      "22name": 6846,
      "1j": 6847,
      "3t": 6848,
      "==~-": 6849,
      "yout": 6850,
      "694": 6851,
      "rivers": 6852,
      "Dresses": 6853,
      "\\\\\\\\": 6854,
      "cessories": 6855,
      "xQ": 6856,
      "biI6": 6857,
      "nD": 6858,
      "992": 6859,
      "542": 6860,
      "tracking": 6861,
      "YK": 6862,
      "mR": 6863,
      "1920x1080": 6864,
      "_h": 6865,
      "a27": 6866,
      "4b63": 6867,
      "L6o": 6868,
      "e94": 6869,
      "etail": 6870,
      "children": 6871,
      "relevance": 6872,
      "rZX": 6873,
      "13e": 6874,
      "COR": 6875,
      "WBg": 6876,
      "lN": 6877,
      "23434": 6878,
      "W4": 6879,
      "Yf": 6880,
      "lear": 6881,
      "MHx": 6882,
      "ZE": 6883,
      "org": 6884,
      "1660213435": 6885,
      "6r": 6886,
      "MV": 6887,
      "LCJzc": 6888,
      "3T": 6889,
      "Timestamp": 6890,
      "4a3": 6891,
      "J0": 6892,
      "c71": 6893,
      "pP": 6894,
      "http_response": 6895,
      "iOjE3Mjgz": 6896,
      "http_response_code": 6897,
      "4L": 6898,
      "5t": 6899,
      "836": 6900,
      "qQ": 6901,
      "ick": 6902,
      "JTJG": 6903,
      "4a2": 6904,
      "mess": 6905,
      "2526pid": 6906,
      "basket": 6907,
      "M6": 6908,
      "iw": 6909,
      "225007260523434": 6910,
      "Gs": 6911,
      "oe": 6912,
      "17209617": 6913,
      "Bf": 6914,
      "HA": 6915,
      "atalog": 6916,
      "}}\\\",\\\"": 6917,
      "rough": 6918,
      "_tab": 6919,
      "2526page": 6920,
      "253Dbr": 6921,
      "Nb": 6922,
      "sO": 6923,
      "973": 6924,
      "I3ND": 6925,
      "ache": 6926,
      "dur": 6927,
      "EQ": 6928,
      "552": 6929,
      "s_ecid": 6930,
      "MCMID": 6931,
      "45ce": 6932,
      "Ze": 6933,
      "vw": 6934,
      "zj": 6935,
      "1975": 6936,
      "2X": 6937,
      "man": 6938,
      "1000": 6939,
      "b6a27": 6940,
      "27c5b": 6941,
      "activitymap": 6942,
      "Gr": 6943,
      "i6": 6944,
      "ith": 6945,
      "trig": 6946,
      "iner": 6947,
      "ZSD": 6948,
      "time_to": 6949,
      "4d1f": 6950,
      "233": 6951,
      "_gVKoJ5": 6952,
      "_tFR15T": 6953,
      "CfDJ8BZV7bSK_gVKoJ5": 6954,
      "CfDJ8BZV7bSK_gVKoJ5_tFR15T": 6955,
      "1e3": 6956,
      "9o": 6957,
      "tG": 6958,
      "vr": 6959,
      "5124837": 6960,
      "a67094e": 6961,
      "101927c5b": 6962,
      "d4bfde": 6963,
      "45ce5124837": 6964,
      "a67094eab": 6965,
      "101927c5b4d1f": 6966,
      "d4bfde101927c5b4d1f": 6967,
      "45ce5124837a67094eab": 6968,
      "ipp": 6969,
      "4PE": 6970,
      "2023": 6971,
      "668": 6972,
      "device_": 6973,
      "xi": 6974,
      "59bb": 6975,
      "FPAU": 6976,
      "position": 6977,
      "JV": 6978,
      "Checkout": 6979,
      "3Csvg": 6980,
      "DG": 6981,
      "228": 6982,
      "Ijow": 6983,
      "2gG": 6984,
      "IkO": 6985,
      "gistered": 6986,
      "Mp": 6987,
      "ective": 6988,
      "document": 6989,
      "_order": 6990,
      "Pc": 6991,
      "server_": 6992,
      "RG": 6993,
      "vert": 6994,
      "ac3c": 6995,
      "avelInfo": 6996,
      "Qs": 6997,
      "UU": 6998,
      "Ve": 6999,
      "aae": 7000,
      "df0": 7001,
      "mll": 7002,
      "ceid": 7003,
      "52D": 7004,
      "210": 7005,
      "SW": 7006,
      "EoD": 7007,
      "jyqSAQAA": 7008,
      "hoto": 7009,
      "2321": 7010,
      "131": 7011,
      "CJ9": 7012,
      "aab": 7013,
      "_tag": 7014,
      "v4X": 7015,
      "1728568271": 7016,
      "a28": 7017,
      "3Ct": 7018,
      "_79": 7019,
      "za8": 7020,
      "CD54": 7021,
      "REQU": 7022,
      "5Q": 7023,
      "OUNTRY": 7024,
      "Bi": 7025,
      "U6": 7026,
      "aHR": 7027,
      "ince": 7028,
      "0Ts": 7029,
      "n4": 7030,
      "nv": 7031,
      "YAAQza8": 7032,
      "treatment": 7033,
      "64082": 7034,
      "u0r": 7035,
      "58564082": 7036,
      "2287": 7037,
      "023": 7038,
      "2b9": 7039,
      "9Ht": 7040,
      "Dz": 7041,
      "J7": 7042,
      "currency": 7043,
      "iI6": 7044,
      "doub": 7045,
      "cBI": 7046,
      "xK": 7047,
      "4750": 7048,
      "=##": 7049,
      "351382932_": 7050,
      "##;": 7051,
      "_ceid": 7052,
      "__attentive_domain": 7053,
      "__attentive_ceid": 7054,
      "CD5432": 7055,
      "REQUEST": 7056,
      "02f": 7057,
      "Catalog": 7058,
      "function": 7059,
      "tL1": 7060,
      "MAF": 7061,
      "zfgb": 7062,
      "Lx": 7063,
      "N4": 7064,
      "WG": 7065,
      "kYW": 7066,
      "frm": 7067,
      "tracker_": 7068,
      "tag_": 7069,
      "vf": 7070,
      "orial": 7071,
      "BBx": 7072,
      "8S": 7073,
      "1_fb": 7074,
      "15983": 7075,
      "tR": 7076,
      "rlM": 7077,
      "1975Z": 7078,
      "159831975Z": 7079,
      "Eq": 7080,
      "Etf": 7081,
      "178": 7082,
      "3A40": 7083,
      "VH2l": 7084,
      "jgFd": 7085,
      "0JjgFd": 7086,
      "b_D_BwE": 7087,
      "KGb_D_BwE": 7088,
      "kau0r": 7089,
      "hwMVH2l": 7090,
      "HAR0JjgFd": 7091,
      "EAIaIQobChMIkau0r": 7092,
      "EAAYASAAEgKGb_D_BwE": 7093,
      "52DhwMVH2l": 7094,
      "HAR0JjgFdEAAYASAAEgKGb_D_BwE": 7095,
      "EAIaIQobChMIkau0r52DhwMVH2l": 7096,
      "EAIaIQobChMIkau0r52DhwMVH2lHAR0JjgFdEAAYASAAEgKGb_D_BwE": 7097,
      "1P": 7098,
      "extensions": 7099,
      "Return": 7100,
      "22v": 7101,
      "BVBRANDID": 7102,
      "_de": 7103,
      "ligh": 7104,
      "af74": 7105,
      "c0SP": 7106,
      "22758564082": 7107,
      "e3o": 7108,
      "_Sh": 7109,
      "oneproject": 7110,
      "L6n": 7111,
      "R7": 7112,
      "let": 7113,
      "_source": 7114,
      "ord": 7115,
      "_clear": 7116,
      "A8B": 7117,
      "GYU": 7118,
      "a04b": 7119,
      "LPy": 7120,
      "page_url": 7121,
      "dQ": 7122,
      "lec": 7123,
      "u_h": 7124,
      "Dk": 7125,
      "Nif": 7126,
      "qHZ": 7127,
      "3BBF": 7128,
      "YAAQ3BBF": 7129,
      "DES": 7130,
      "2Ue": 7131,
      "I8Q": 7132,
      "iag": 7133,
      "emplat": 7134,
      "_aa": 7135,
      "JTt": 7136,
      "pSOv": 7137,
      "AK": 7138,
      "b35": 7139,
      "37k2": 7140,
      "89Rs": 7141,
      "a_jO": 7142,
      "thMAF": 7143,
      "Wxzf": 7144,
      "OrkYW": 7145,
      "9vv32": 7146,
      "1728663170": 7147,
      "blLPy": 7148,
      "PHWBg": 7149,
      "abtVisit": 7150,
      "EyLp": 7151,
      "RDrlM": 7152,
      "i3v4X": 7153,
      "9d1f2": 7154,
      "3XBBx": 7155,
      "v2x7": 7156,
      "jy0Ts": 7157,
      "Q1COR": 7158,
      "OwNif": 7159,
      "137c71": 7160,
      "Zwc0SP": 7161,
      "Ytcox": 7162,
      "217137c71": 7163,
      "o1Etf": 7164,
      "rmIq": 7165,
      "_vRDrlM": 7166,
      "fEtL1": 7167,
      "JBi3v4X": 7168,
      "5ij1": 7169,
      "Dwo1Etf": 7170,
      "877a04b": 7171,
      "L6o9vv32": 7172,
      "e9459bb": 7173,
      "mll37k2": 7174,
      "e3ocBI": 7175,
      "_Sh2Ue": 7176,
      "GYUWxzf": 7177,
      "qHZmll37k2": 7178,
      "pSOv89Rs": 7179,
      "a_jOQ1COR": 7180,
      "thMAFfEtL1": 7181,
      "OrkYWYtcox": 7182,
      "blLPyPHWBg": 7183,
      "EyLpOwNif": 7184,
      "9d1f2af74": 7185,
      "3XBBxEyLpOwNif": 7186,
      "v2x7a_jOQ1COR": 7187,
      "jy0TsL6o9vv32": 7188,
      "Zwc0SP3XBBxEyLpOwNif": 7189,
      "217137c71e9459bb": 7190,
      "rmIqDwo1Etf": 7191,
      "_vRDrlMuk": 7192,
      "JBi3v4Xe3ocBI": 7193,
      "877a04b9d1f2af74": 7194,
      "GYUWxzfJBi3v4Xe3ocBI": 7195,
      "qHZmll37k2GYUWxzfJBi3v4Xe3ocBI": 7196,
      "pSOv89RsblLPyPHWBg": 7197,
      "thMAFfEtL1jy0TsL6o9vv32": 7198,
      "OrkYWYtcoxZwc0SP3XBBxEyLpOwNif": 7199,
      "v2x7a_jOQ1CORMUV": 7200,
      "217137c71e9459bb877a04b9d1f2af74": 7201,
      "rmIqDwo1EtfthMAFfEtL1jy0TsL6o9vv32": 7202,
      "pSOv89RsblLPyPHWBg_Sh2Ue": 7203,
      "OrkYWYtcoxZwc0SP3XBBxEyLpOwNifv2x7a_jOQ1CORMUV": 7204,
      "rmIqDwo1EtfthMAFfEtL1jy0TsL6o9vv32_vRDrlMuk": 7205,
      "p3": 7206,
      "3A42": 7207,
      "60echo": 7208,
      "HQ": 7209,
      "L7": 7210,
      "N9E": 7211,
      "c03c": 7212,
      "e5f0": 7213,
      "H5": 7214,
      "WHr": 7215,
      "bev": 7216,
      "V6": 7217,
      "ec14": 7218,
      "../../../": 7219,
      "||||": 7220,
      "cf_clear": 7221,
      "signed": 7222,
      "doublec": 7223,
      "cf_clearance": 7224,
      "doubleclick": 7225,
      "8g": 7226,
      "Ai": 7227,
      "Ss": 7228,
      "Zr": 7229,
      "Mwg": 7230,
      "iOjE3MjgzNz": 7231,
      "80e3": 7232,
      "48d5": 7233,
      "A8C": 7234,
      "VPo": 7235,
      "a36a": 7236,
      "ars": 7237,
      "2b4b": 7238,
      "22d": 7239,
      "alts": 7240,
      "267094e": 7241,
      "55WV": 7242,
      "1415": 7243,
      "5040": 7244,
      "ABT1": 7245,
      "_aalts": 7246,
      "_ga_3L": 7247,
      "8a2321": 7248,
      "968598": 7249,
      "HC55WV": 7250,
      "917968598": 7251,
      "20f60267094e": 7252,
      "698a36a": 7253,
      "_ga_3LHC55WV": 7254,
      "8a2321b": 7255,
      "20f60267094e8a2321b": 7256,
      "698a36a20f60267094e8a2321b": 7257,
      "_ga_3LHC55WV8L": 7258,
      "PO": 7259,
      "2C2": 7260,
      "2600": 7261,
      "ProductCatalog": 7262,
      "cache": 7263,
      "1728663206": 7264,
      "9531625": 7265,
      "953162518": 7266,
      "5bb": 7267,
      "10565": 7268,
      "bd96": 7269,
      "oneprojectshop": 7270,
      "118a": 7271,
      "abd7": 7272,
      "Ijp": 7273,
      "4I": 7274,
      "e23": 7275,
      "4dfb": 7276,
      "1f5f6": 7277,
      "899": 7278,
      "883": 7279,
      "Bz": 7280,
      "fe71": 7281,
      "17281070": 7282,
      "b0d7e": 7283,
      "1e3b0d7e": 7284,
      "ec14b3f": 7285,
      "1f5f6ec14b3f": 7286,
      "ran": 7287,
      "174": 7288,
      "90c": 7289,
      "ba9": 7290,
      "2C3": 7291,
      "544": 7292,
      "e0c5": 7293,
      "fd04": 7294,
      "91c5": 7295,
      "dbac3c": 7296,
      "9bfe71": 7297,
      "7e9bfe71": 7298,
      "24636": 7299,
      "8a08": 7300,
      "4750dbac3c": 7301,
      "4750dbac3c98": 7302,
      "_sipp": 7303,
      "579": 7304,
      "fb90": 7305,
      "_pcc": 7306,
      "3OT": 7307,
      "6961": 7308,
      "Zrt": 7309,
      "lm": 7310,
      "17a9d": 7311,
      "3Ats": 7312,
      "3Ahc": 7313,
      "3D17286632": 7314,
      "3D8744": 7315,
      "50a8b": 7316,
      "ded033": 7317,
      "2ba": 7318,
      "5bd3": 7319,
      "_br_uid": 7320,
      "8b5bd3": 7321,
      "6e2917": 7322,
      "wzuid": 7323,
      "wzsid": 7324,
      "683816": 7325,
      "mf_user": 7326,
      "mf_79": 7327,
      "295fd04": 7328,
      "a76e5f0": 7329,
      "135abd7": 7330,
      "c3c6e2917": 7331,
      "7ae2b9": 7332,
      "af3cfb90": 7333,
      "118a50a8b": 7334,
      "e0c517a9d": 7335,
      "3D1728663210565": 7336,
      "3D8744683816": 7337,
      "_br_uid_2": 7338,
      "8b5bd3e0c517a9d": 7339,
      "mf_79ded033": 7340,
      "295fd04a76e5f0": 7341,
      "135abd7295fd04a76e5f0": 7342,
      "c3c6e2917ea6": 7343,
      "7ae2b9118a50a8b": 7344,
      "af3cfb90135abd7295fd04a76e5f0": 7345,
      "3D8744683816382": 7346,
      "8b5bd3e0c517a9d78": 7347,
      "7ae2b9118a50a8b8b5bd3e0c517a9d78": 7348,
      "af3cfb90135abd7295fd04a76e5f0335": 7349,
      "Mon": 7350,
      "pw": 7351,
      "a3a6": 7352,
      "227585640820001": 7353,
      "045": 7354,
      "296": 7355,
      "8854": 7356,
      "_cs_c": 7357,
      "955": 7358,
      "VA": 7359,
      "d24": 7360,
      "mK": 7361,
      "22rece": 7362,
      "66f": 7363,
      "07c": 7364,
      "ZBs": 7365,
      "221663746892": 7366,
      "22receiv": 7367,
      "fVRT": 7368,
      "3A1728567897": 7369,
      "854": 7370,
      "eb07": 7371,
      "2BGS": 7372,
      "172820624": 7373,
      "_cs_id": 7374,
      "jf": 7375,
      "372": 7376,
      "c0f0": 7377,
      "90af": 7378,
      "7b32": 7379,
      "2303": 7380,
      "b9fb": 7381,
      "c4e6": 7382,
      "087eb11ef": 7383,
      "see": 7384,
      "ce713": 7385,
      "Bx6": 7386,
      "838ce713": 7387,
      "396c4e6": 7388,
      "c524c4d": 7389,
      "c524c0f0": 7390,
      "87eb11ef838ce713": 7391,
      "cf844": 7392,
      "lights": 7393,
      "eb077b32": 7394,
      "90af396c4e6": 7395,
      "087eb11ef90af396c4e6": 7396,
      "c524c4d087eb11ef90af396c4e6": 7397,
      "c524c0f087eb11ef838ce713": 7398,
      "c524c4d087eb11ef90af396c4e6cf844": 7399,
      "c524c0f087eb11ef838ce713eb077b32": 7400,
      "351": 7401,
      "oR": 7402,
      "BVR": 7403,
      "20000": 7404,
      "b53": 7405,
      "dws": 7406,
      "jj": 7407,
      "current": 7408,
      "_ni": 7409,
      "r_": 7410,
      "federat": 7411,
      "3ACf": 7412,
      "ree": 7413,
      "more": 7414,
      "efgF": 7415,
      "9053": 7416,
      "95Zg": 7417,
      "DNox8JbUSTxk": 7418,
      "UJsZ": 7419,
      "8yV1h": 7420,
      "Hrss": 7421,
      "KtBx6": 7422,
      "TKWHr": 7423,
      "FWJTt": 7424,
      "6ovefgF": 7425,
      "I8Q8yV1h": 7426,
      "MwgUJsZ": 7427,
      "VPoTKWHr": 7428,
      "ZrtfVRT": 7429,
      "2BGSBVR": 7430,
      "3ACfKtBx6": 7431,
      "95ZgDNox8JbUSTxk": 7432,
      "FWJTtMwgUJsZ": 7433,
      "6ovefgF95ZgDNox8JbUSTxk": 7434,
      "I8Q8yV1hVPoTKWHr": 7435,
      "ZrtfVRTFWJTtMwgUJsZ": 7436,
      "2BGSBVR6ovefgF95ZgDNox8JbUSTxk": 7437,
      "3ACfKtBx6I8Q8yV1hVPoTKWHr": 7438,
      "ZrtfVRTFWJTtMwgUJsZHrss": 7439,
      "3ACfKtBx6I8Q8yV1hVPoTKWHrZrtfVRTFWJTtMwgUJsZHrss": 7440,
      "sgMj": 7441,
      "jKsgMj": 7442,
      "FI": 7443,
      "I08": 7444,
      "hM": 7445,
      "uT": 7446,
      "ca8d": 7447,
      "Registered": 7448,
      "x0g": 7449,
      "_time_ms": 7450,
      "4a3f": 7451,
      "Z4GW": 7452,
      "16T": 7453,
      "5912": 7454,
      "BBZSD": 7455,
      "././././././././": 7456,
      "_ga_WBBZSD": 7457,
      "_ga_WBBZSDZ4GW": 7458,
      "1r": 7459,
      "P_": 7460,
      "\\\\\\\"}": 7461,
      "52647": 7462,
      "1728663220": 7463,
      "time_to_response": 7464,
      "pQ": 7465,
      "YWEz": 7466,
      "iY": 7467,
      "289": 7468,
      "8470": 7469,
      "xX": 7470,
      "fn": 7471,
      "a9e9": 7472,
      "4851": 7473,
      "buil": 7474,
      "446d": 7475,
      "_pay": 7476,
      "8111": 7477,
      "scription": 7478,
      "f3d0": 7479,
      "evm": 7480,
      "2e27": 7481,
      "LC0": 7482,
      "Tag": 7483,
      "ed_search": 7484,
      "56a3a6": 7485,
      "IDLomukub9K7vj": 7486,
      "fd012": 7487,
      "GSIDLomukub9K7vj": 7488,
      "STSID": 7489,
      "0eZQ": 7490,
      "6dca8d": 7491,
      "ed_us": 7492,
      "023c03c": 7493,
      "02f56a3a6": 7494,
      "07c52647": 7495,
      "STSIDLomukub9K7vj": 7496,
      "6dca8dad": 7497,
      "023c03cfd012": 7498,
      "02f56a3a6ace": 7499,
      "3EI08": 7500,
      "af316": 7501,
      "prf5": 7502,
      "beqk": 7503,
      "91Br": 7504,
      "quprf5": 7505,
      "Yzzp": 7506,
      "1728663290": 7507,
      "myn0": 7508,
      "00000f3d0": 7509,
      "5nYQ": 7510,
      "LyOu": 7511,
      "AOL6n": 7512,
      "e8e23": 7513,
      "RyH_": 7514,
      "UOmyn0": 7515,
      "SDhE": 7516,
      "057045": 7517,
      "ALNI_MZBs": 7518,
      "21a2e27": 7519,
      "86eaf316": 7520,
      "ALNI_MYx0g": 7521,
      "khKRyH_": 7522,
      "AfjYzzp": 7523,
      "ac6a9e9": 7524,
      "EoD3EI08": 7525,
      "N9El": 7526,
      "3A1728567897992": 7527,
      "evmEoD3EI08": 7528,
      "0eZQ91Br": 7529,
      "beqkSDhE": 7530,
      "quprf5N9El": 7531,
      "00000f3d0ac6a9e9": 7532,
      "AOL6n0eZQ91Br": 7533,
      "e8e2386eaf316": 7534,
      "UOmyn0FQ": 7535,
      "05704521a2e27": 7536,
      "ALNI_MZBsAOL6n0eZQ91Br": 7537,
      "ALNI_MYx0gLyOu": 7538,
      "khKRyH_5nYQ": 7539,
      "AfjYzzpbeqkSDhE": 7540,
      "evmEoD3EI08UOmyn0FQ": 7541,
      "e8e2386eaf316ef1": 7542,
      "05704521a2e27823": 7543,
      "AfjYzzpbeqkSDhEquprf5N9El": 7544,
      "H7": 7545,
      "20div": 7546,
      "0S": 7547,
      "trigger": 7548,
      "CED": 7549,
      "XF": 7550,
      "u_f": 7551,
      "anam00": 7552,
      "870": 7553,
      "anam002287": 7554,
      "%%": 7555,
      "1697": 7556,
      "u_em": 7557,
      "abtUserName": 7558,
      "abtUserEmail": 7559,
      "u_fn": 7560,
      "Country": 7561,
      "vi": 7562,
      "374": 7563,
      "\\\\\\\"]": 7564,
      "Be": 7565,
      "NL": 7566,
      "Pq": 7567,
      "4758": 7568,
      "layout": 7569,
      "d6k": 7570,
      "UB": 7571,
      "We": 7572,
      "A1Mz": 7573,
      "zw": 7574,
      "open": 7575,
      "pJ": 7576,
      "591b": 7577,
      "9d94": 7578,
      "federated_search": 7579,
      "1W": 7580,
      "4175": 7581,
      "uA": 7582,
      "bil": 7583,
      "ials": 7584,
      "zF": 7585,
      "3Cscript": 7586,
      "MmNj": 7587,
      "DV": 7588,
      "TY": 7589,
      "Zv": 7590,
      "172810583": 7591,
      "qC": 7592,
      "22HZZ03799": 7593,
      "formance": 7594,
      "lkOT": 7595,
      "540": 7596,
      "bility": 7597,
      "518": 7598,
      "RN": 7599,
      "253": 7600,
      "82cc": 7601,
      "ajs_anonymous_id": 7602,
      "41751036": 7603,
      "8Q": 7604,
      "3B6494087": 7605,
      "NDc1OD": 7606,
      "JTNE": 7607,
      "EwYWEz": 7608,
      "QzMjQ4": 7609,
      "TI3OT": 7610,
      "eyJ1Ijoie1wiY29cIjoxNzI4MTA1ODM1MDQ2": 7611,
      "LFwidW9cIjoxNzI4MTA1ODM1MDQ2": 7612,
      "32482cc": 7613,
      "27410a": 7614,
      "LFwibWFcIjoyMTkwMCxcImluXCI6ZmFsc2UsXCJ2YWxcIjpcImI2YTI3OT": 7615,
      "I3NDEwYWEz": 7616,
      "b6a279053": 7617,
      "475827410a": 7618,
      "A1MzlkOT": 7619,
      "9d9432482cc": 7620,
      "MmNjNDc1OD": 7621,
      "1728105835048": 7622,
      "QzMjQ4MmNjNDc1OD": 7623,
      "eyJ1Ijoie1wiY29cIjoxNzI4MTA1ODM1MDQ2LFwidW9cIjoxNzI4MTA1ODM1MDQ2": 7624,
      "LFwibWFcIjoyMTkwMCxcImluXCI6ZmFsc2UsXCJ2YWxcIjpcImI2YTI3OTA1MzlkOT": 7625,
      "I3NDEwYWEzXCJ9In0": 7626,
      "b6a2790539d9432482cc": 7627,
      "475827410aa3": 7628,
      "QzMjQ4MmNjNDc1ODI3NDEwYWEzXCJ9In0": 7629,
      "eyJ1Ijoie1wiY29cIjoxNzI4MTA1ODM1MDQ2LFwidW9cIjoxNzI4MTA1ODM1MDQ2LFwibWFcIjoyMTkwMCxcImluXCI6ZmFsc2UsXCJ2YWxcIjpcImI2YTI3OTA1MzlkOT": 7630,
      "b6a2790539d9432482cc475827410aa3": 7631,
      "eyJ1Ijoie1wiY29cIjoxNzI4MTA1ODM1MDQ2LFwidW9cIjoxNzI4MTA1ODM1MDQ2LFwibWFcIjoyMTkwMCxcImluXCI6ZmFsc2UsXCJ2YWxcIjpcImI2YTI3OTA1MzlkOTQzMjQ4MmNjNDc1ODI3NDEwYWEzXCJ9In0": 7632,
      "E15": 7633,
      "RDD": 7634,
      "preRegistered": 7635,
      "QueryId": 7636,
      "preRegisteredQueryId": 7637,
      "2289": 7638,
      "11ed": 7639,
      "Editor": 7640,
      "parent": 7641,
      "2216": 7642,
      "4b7d": 7643,
      "ytes": 7644,
      "}};": 7645,
      "0600": 7646,
      "4l": 7647,
      "ION": 7648,
      "52a9": 7649,
      "M0Q": 7650,
      "121": 7651,
      "Bang": 7652,
      "RcAA": 7653,
      "186": 7654,
      "_cs_s": 7655,
      "H1": 7656,
      "22BO": 7657,
      "293": 7658,
      "9038": 7659,
      "Pool": 7660,
      "adults": 7661,
      "da99": 7662,
      "3j": 7663,
      "Signup": 7664,
      "TAUD": 7665,
      "book": 7666,
      "\\\"}],\\\"": 7667,
      "XSX": 7668,
      "TATravelInfo": 7669,
      "ServerPool": 7670,
      "eTAwT": 7671,
      "state": 7672,
      "1873": 7673,
      "\\\"}},\\\"": 7674,
      "Jr": 7675,
      "r5n": 7676,
      "desh": 7677,
      "hdGh": 7678,
      "_rate": 7679,
      "category_order": 7680,
      "egged": 7681,
      "hdGhha": 7682,
      "Flights": 7683,
      "202405": 7684,
      "2B0600": 7685,
      "ladesh": 7686,
      "Bangladesh": 7687,
      "ibility": 7688,
      "uv": 7689,
      "ecom": 7690,
      "068b": 7691,
      "01hy": 7692,
      "8a5e": 7693,
      "22a52a9": 7694,
      "7c24": 7695,
      "6c3d7": 7696,
      "da95040": 7697,
      "22a52a92b5": 7698,
      "da950406c3d7": 7699,
      "421": 7700,
      "cpl": 7701,
      "p6": 7702,
      "wwa59": 7703,
      "253732": 7704,
      "moD": 7705,
      "aswwa59": 7706,
      "9vaswwa59": 7707,
      "4aa837": 7708,
      "3A1728567899": 7709,
      "b41031": 7710,
      "290f": 7711,
      "3wcq": 7712,
      "21e4aa837": 7713,
      "01j9vaswwa59": 7714,
      "ba9r5n": 7715,
      "01hy3wcq": 7716,
      "253732000": 7717,
      "3A1728567899018": 7718,
      "b41031c7": 7719,
      "21e4aa8374a2": 7720,
      "01j9vaswwa59ba9r5n": 7721,
      "01j9vaswwa59ba9r5n01hy3wcq": 7722,
      "F98": 7723,
      "EGJq": 7724,
      "7H": 7725,
      "c634": 7726,
      "c7ad": 7727,
      "ZhbH": 7728,
      "sol": 7729,
      "9ebda99": 7730,
      "842eba": 7731,
      "5bb9ebda99": 7732,
      "2289842eba": 7733,
      "5bb9ebda99cb": 7734,
      "EAU": 7735,
      "17285678854": 7736,
      "2x1": 7737,
      "2024_10_10": 7738,
      "ph": 7739,
      "qS": 7740,
      "UNCED": 7741,
      "22BOUNCED": 7742,
      "4n": 7743,
      "MTcy": 7744,
      "protocol": 7745,
      "qD": 7746,
      "MXB": 7747,
      "_exp": 7748,
      "496": 7749,
      "EGJqAw": 7750,
      "FC": 7751,
      "5s": 7752,
      "112": 7753,
      "C0003": 7754,
      "ShoppingBag": 7755,
      "3n": 7756,
      "Pn": 7757,
      "559": 7758,
      "VVI": 7759,
      "3E6": 7760,
      "ae6": 7761,
      "pay": 7762,
      "http_method": 7763,
      "DAF": 7764,
      "f00": 7765,
      "2Faccount": 7766,
      "0q": 7767,
      "OQ": 7768,
      "i8v": 7769,
      "40C": 7770,
      "pZ2x1": 7771,
      "WEiOiJ": 7772,
      "WEiOiJpZ2x1": 7773,
      "HM6": 7774,
      "LmNvbS": 7775,
      "3A41": 7776,
      "MTA": 7777,
      "53a": 7778,
      "L8": 7779,
      "P9": 7780,
      "acK": 7781,
      "1261415": 7782,
      "1191261415": 7783,
      "F695": 7784,
      "9C6F98": 7785,
      "586067": 7786,
      "4A99": 7787,
      "DAF40C": 7788,
      "9C6F98DAF40C": 7789,
      "586067AA": 7790,
      "zz": 7791,
      "local": 7792,
      "64d": 7793,
      "lig": 7794,
      "A4D": 7795,
      "22brand": 7796,
      "0cHM6": 7797,
      "0cHM6Ly": 7798,
      "1719747190": 7799,
      "J2": 7800,
      "cfy": 7801,
      "9j": 7802,
      "clude": 7803,
      "m2": 7804,
      "89680": 7805,
      "tributes": 7806,
      "TT": 7807,
      "qm": 7808,
      "22MTA": 7809,
      "3AF4910B7880EBC9A27AECDF8457535282": 7810,
      "QYmoD": 7811,
      "3A1728567989680": 7812,
      "bV": 7813,
      "F3": 7814,
      "YH": 7815,
      "yd": 7816,
      "07D7": 7817,
      "hZO": 7818,
      "WEiOiJpZ2x1Om": 7819,
      "from": 7820,
      "include": 7821,
      "801": 7822,
      "YWxz": 7823,
      "ber": 7824,
      "etc0x": 7825,
      "qfetc": 7826,
      "font": 7827,
      "Lk": 7828,
      "h0d": 7829,
      "Imcl": 7830,
      "WEiOiJpZ2x1OmNvbS": 7831,
      "IW": 7832,
      "_new": 7833,
      "5l": 7834,
      "Fg": 7835,
      "P0": 7836,
      "Tt": 7837,
      "page_referrer": 7838,
      "222024": 7839,
      "XSwi": 7840,
      "370": 7841,
      "yR": 7842,
      "Ea6": 7843,
      "Va": 7844,
      "zOi8v": 7845,
      "HBzOi8v": 7846,
      "x0E": 7847,
      "h0dHBzOi8v": 7848,
      "WEB": 7849,
      "dY": 7850,
      "wedding": 7851,
      "AAB": 7852,
      "editorial": 7853,
      "F8C": 7854,
      "IS": 7855,
      "A4X": 7856,
      "5Z": 7857,
      "IiLCJ": 7858,
      "jS": 7859,
      "5G": 7860,
      "Li": 7861,
      "7C12": 7862,
      "ffff": 7863,
      "[{\\\"": 7864,
      "header": 7865,
      "YXR": 7866,
      "_us": 7867,
      "2199": 7868,
      "y5": 7869,
      "0VW": 7870,
      "oid": 7871,
      "qbL": 7872,
      "207": 7873,
      "8225": 7874,
      "10Z": 7875,
      "iteration": 7876,
      "TU": 7877,
      "_work": 7878,
      "068": 7879,
      "_inst": 7880,
      "gg": 7881,
      "xhtml": 7882,
      "2961": 7883,
      "Qv": 7884,
      "zb": 7885,
      "590": 7886,
      "Intent": 7887,
      "Hw": 7888,
      "LMj": 7889,
      "ated": 7890,
      "m0": 7891,
      "Ijpb": 7892,
      "pret": 7893,
      "network_request": 7894,
      "aHR0cHM6Ly": 7895,
      "17282062447": 7896,
      "MO": 7897,
      "cW": 7898,
      "22H": 7899,
      "_landing": 7900,
      "xt": 7901,
      "HK": 7902,
      "date": 7903,
      "Editorials": 7904,
      "pG": 7905,
      "tyPath": 7906,
      "listname": 7907,
      "subDresses": 7908,
      "51461": 7909,
      "arrivals": 7910,
      "cplid": 7911,
      "prettyPath": 7912,
      "q2": 7913,
      "xL": 7914,
      "4441": 7915,
      "Nv3": 7916,
      "_payload": 7917,
      "P3": 7918,
      "2226": 7919,
      "KTOP": 7920,
      "RC": 7921,
      "Vv": 7922,
      "Xj": 7923,
      "aBI": 7924,
      "xe": 7925,
      "YAAQNv3": 7926,
      "828": 7927,
      "fm": 7928,
      "3A52": 7929,
      "460": 7930,
      "lement": 7931,
      "yY": 7932,
      "22eventType": 7933,
      "1663746729": 7934,
      "edG": 7935,
      ",'": 7936,
      "Oe": 7937,
      "QA": 7938,
      "IX": 7939,
      "7J": 7940,
      "png": 7941,
      "3A91": 7942,
      "T11": 7943,
      "_or": 7944,
      "duration": 7945,
      "NN": 7946,
      "2013": 7947,
      "2Fg": 7948,
      "visibility": 7949,
      "buy": 7950,
      "rade": 7951,
      "extension_": 7952,
      "fants": 7953,
      "PageAction": 7954,
      "qB": 7955,
      "only": 7956,
      "opy": 7957,
      "tg": 7958,
      "ZY": 7959,
      "0l": 7960,
      "Na": 7961,
      "YAAQX7": 7962,
      "b3Vw": 7963,
      "2C0_20000": 7964,
      "mDAQAA": 7965,
      "YAAQX7EX": 7966,
      "bB": 7967,
      "rtbh": 7968,
      "_proto": 7969,
      "WK": 7970,
      "Zu": 7971,
      "__rtbh": 7972,
      "LMjmDAQAA": 7973,
      "ams": 7974,
      "userAgent": 7975,
      "query": 7976,
      "Tier": 7977,
      "P6": 7978,
      "icle": 7979,
      "2299107": 7980,
      "jitney_client_session": 7981,
      "1g": 7982,
      "service_work": 7983,
      "0C": 7984,
      "2C83": 7985,
      "Sv": 7986,
      "pgrade": 7987,
      "area": 7988,
      "Vud": 7989,
      "rd": 7990,
      "303": 7991,
      "WVRK": 7992,
      "eyJpZCI6Im": 7993,
      "aK": 7994,
      "less": 7995,
      "ork_": 7996,
      "qY": 7997,
      "sD": 7998,
      "iOjAsIm": 7999,
      "ik": 8000,
      "4ec": 8001,
      "TG": 8002,
      "_set": 8003,
      "9SM": 8004,
      "144": 8005,
      "1v": 8006,
      "effective": 8007,
      "Hu": 8008,
      "ance_id": 8009,
      "_complet": 8010,
      "_connection": 8011,
      "_list": 8012,
      "2C4": 8013,
      "0cn": 8014,
      "base": 8015,
      "Ie": 8016,
      "dyb3Vw": 8017,
      "Xkk": 8018,
      "_instance_id": 8019,
      "2217": 8020,
      "iB": 8021,
      "nKI": 8022,
      "_cd": 8023,
      "ask": 8024,
      "bollbranch": 8025,
      "8w": 8026,
      "10246": 8027,
      "httpd": 8028,
      "igh": 8029,
      "capt": 8030,
      "QC": 8031,
      "a_p": 8032,
      "is4": 8033,
      "PME": 8034,
      "QZ": 8035,
      "category_tag": 8036,
      "367": 8037,
      "846": 8038,
      "ABE": 8039,
      "Mzk": 8040,
      "button": 8041,
      "BVBRANDSID": 8042,
      "0g": 8043,
      "pC": 8044,
      "7Cz": 8045,
      "83c": 8046,
      "IjoiaHR0cHM6Ly": 8047,
      "TNI": 8048,
      "w4": 8049,
      "3A16": 8050,
      "_process": 8051,
      "6D": 8052,
      "E78": 8053,
      "H3": 8054,
      "4c17": 8055,
      "130357": 8056,
      "962961": 8057,
      "5c10246": 8058,
      "c696c": 8059,
      "A2MD": 8060,
      "_start_time": 8061,
      "revolveassets": 8062,
      "b2c4c17": 8063,
      "130357962961": 8064,
      "5c10246c696c": 8065,
      "b2c4c17df0": 8066,
      "5c10246c696cb2c4c17df0": 8067,
      "2355": 8068,
      "app_instance_id": 8069,
      "Ldk": 8070,
      "N3": 8071,
      "Npb": 8072,
      "sP": 8073,
      "001": 8074,
      "sktop": 8075,
      "cvars": 8076,
      "web_app": 8077,
      "GUXP": 8078,
      "1qGUXP": 8079,
      "498qbL": 8080,
      "QDPME": 8081,
      "Tq1qGUXP": 8082,
      "aBITq1qGUXP": 8083,
      "Xkk498qbL": 8084,
      "QDPMEaBITq1qGUXP": 8085,
      "Xkk498qbL0VW": 8086,
      "QDPMEaBITq1qGUXPXkk498qbL0VW": 8087,
      "JL": 8088,
      "p1": 8089,
      "atty": 8090,
      "description": 8091,
      "royb": 8092,
      "_metric": 8093,
      "DESKTOP": 8094,
      "TNI1625": 8095,
      "roybatty": 8096,
      "317": 8097,
      "V5": 8098,
      "usr": 8099,
      "application_info": 8100,
      "application_process": 8101,
      "event_time_ms": 8102,
      "json_proto": 8103,
      "google_app_id": 8104,
      "client_start_time": 8105,
      "er_status": 8106,
      "],[": 8107,
      "source_extension_": 8108,
      "visibility_state": 8109,
      "service_worker_status": 8110,
      "effective_connection": 8111,
      "web_app_info": 8112,
      "application_process_state": 8113,
      "json_proto3": 8114,
      "client_start_time_us": 8115,
      "source_extension_json_proto3": 8116,
      "effective_connection_type": 8117,
      "2B0": 8118,
      "555": 8119,
      "2526oid": 8120,
      "solut": 8121,
      "/+": 8122,
      "SX": 8123,
      "_marketing": 8124,
      "foo": 8125,
      "user_agent": 8126,
      "\\\"}}": 8127,
      "ancestor": 8128,
      "Size": 8129,
      "sco": 8130,
      "ImV": 8131,
      "KK": 8132,
      "6537": 8133,
      "dw_dnt": 8134,
      "_bytes": 8135,
      "response_payload": 8136,
      "time_to_response_complet": 8137,
      "network_request_metric": 8138,
      "response_payload_bytes": 8139,
      "time_to_response_completed_us": 8140,
      "dHl": 8141,
      "hBiag": 8142,
      "QR": 8143,
      "uH": 8144,
      "dwac": 8145,
      ":%": 8146,
      "gT": 8147,
      "ZVOH": 8148,
      "_cs_cvars": 8149,
      "Dt": 8150,
      "_on": 8151,
      "uc2": 8152,
      "fav": 8153,
      "SV": 8154,
      "1728868554": 8155,
      "3fa6": 8156,
      "vil": 8157,
      "ffset": 8158,
      "3503": 8159,
      "puid": 8160,
      "81a": 8161,
      "b44": 8162,
      "A54": 8163,
      "qw": 8164,
      "caption": 8165,
      "sample": 8166,
      "XZq": 8167,
      "aCL": 8168,
      "qc": 8169,
      "6Z": 8170,
      "fI": 8171,
      "Fragment": 8172,
      "meg": 8173,
      "024": 8174,
      "J3": 8175,
      "869": 8176,
      "0U": 8177,
      "Y5": 8178,
      "M7QDPMEaBITq1qGUXPXkk498qbL0VW": 8179,
      "Je": 8180,
      "Since": 8181,
      "187": 8182,
      "91a": 8183,
      "productId": 8184,
      "682": 8185,
      "u_a": 8186,
      "Akq": 8187,
      "CPH": 8188,
      "ware": 8189,
      "YSI6": 8190,
      "article": 8191
    },
    "merges": [
      [
        "0",
        "0"
      ],
      [
        "u",
        "00"
      ],
      [
        "\\",
        "\""
      ],
      [
        "\"",
        ":"
      ],
      [
        "2",
        "2"
      ],
      [
        "\"",
        ","
      ],
      [
        "o",
        "n"
      ],
      [
        "1",
        "0"
      ],
      [
        "s",
        "e"
      ],
      [
        "e",
        "n"
      ],
      [
        "2",
        "0"
      ],
      [
        "i",
        "n"
      ],
      [
        "a",
        "t"
      ],
      [
        "1",
        "7"
      ],
      [
        "e",
        "r"
      ],
      [
        "e",
        "c"
      ],
      [
        "3",
        "A"
      ],
      [
        "2",
        "8"
      ],
      [
        "u00",
        "0"
      ],
      [
        "s",
        "t"
      ],
      [
        "i",
        "on"
      ],
      [
        "\\\"",
        ":"
      ],
      [
        "c",
        "o"
      ],
      [
        "e",
        "t"
      ],
      [
        "6",
        "4"
      ],
      [
        "en",
        "t"
      ],
      [
        "2",
        "C"
      ],
      [
        "r",
        "e"
      ],
      [
        "c",
        "h"
      ],
      [
        "u00",
        "1"
      ],
      [
        "i",
        "d"
      ],
      [
        "a",
        "n"
      ],
      [
        "\\\"",
        ","
      ],
      [
        "a",
        "g"
      ],
      [
        "b",
        "r"
      ],
      [
        "}",
        ","
      ],
      [
        "17",
        "28"
      ],
      [
        "o",
        "r"
      ],
      [
        "l",
        "e"
      ],
      [
        "d",
        "e"
      ],
      [
        "W",
        "in"
      ],
      [
        "2",
        "9"
      ],
      [
        "8",
        "0"
      ],
      [
        "i",
        "t"
      ],
      [
        "r",
        "o"
      ],
      [
        "w",
        "w"
      ],
      [
        "{",
        "\""
      ],
      [
        "\"",
        "},"
      ],
      [
        "\\",
        "\\"
      ],
      [
        "a",
        "d"
      ],
      [
        "a",
        "l"
      ],
      [
        "3",
        "7"
      ],
      [
        "c",
        "e"
      ],
      [
        "h",
        "o"
      ],
      [
        "10",
        "5"
      ],
      [
        "2",
        "5"
      ],
      [
        "2",
        "4"
      ],
      [
        "m",
        "e"
      ],
      [
        "u",
        "r"
      ],
      [
        "u00",
        "d"
      ],
      [
        "1",
        "1"
      ],
      [
        "\\\":",
        "\\\""
      ],
      [
        "p",
        "t"
      ],
      [
        "u00",
        "9"
      ],
      [
        "3",
        "D"
      ],
      [
        "ag",
        "e"
      ],
      [
        "\\\",",
        "\\\""
      ],
      [
        "a",
        "c"
      ],
      [
        "l",
        "o"
      ],
      [
        "5",
        "C"
      ],
      [
        "d",
        "o"
      ],
      [
        "s",
        "s"
      ],
      [
        "C",
        "on"
      ],
      [
        "se",
        "r"
      ],
      [
        "3",
        "6"
      ],
      [
        "er",
        "s"
      ],
      [
        "l",
        "l"
      ],
      [
        "A",
        "A"
      ],
      [
        "1",
        "6"
      ],
      [
        "ec",
        "t"
      ],
      [
        "ur",
        "l"
      ],
      [
        "t",
        "r"
      ],
      [
        "u",
        "e"
      ],
      [
        "1",
        "9"
      ],
      [
        "se",
        "c"
      ],
      [
        "a",
        "r"
      ],
      [
        "z",
        "i"
      ],
      [
        "l",
        "i"
      ],
      [
        "7",
        "C"
      ],
      [
        "2",
        "6"
      ],
      [
        "d",
        "at"
      ],
      [
        "w",
        "s"
      ],
      [
        "5",
        "5"
      ],
      [
        "2",
        "F"
      ],
      [
        "u001",
        "a"
      ],
      [
        "p",
        "p"
      ],
      [
        "u00",
        "a"
      ],
      [
        "M",
        "o"
      ],
      [
        "do",
        "ws"
      ],
      [
        "5",
        "6"
      ],
      [
        "N",
        "T"
      ],
      [
        "Win",
        "dows"
      ],
      [
        "h",
        "e"
      ],
      [
        "co",
        "m"
      ],
      [
        "k",
        "o"
      ],
      [
        "a",
        "b"
      ],
      [
        "dat",
        "a"
      ],
      [
        "in",
        "g"
      ],
      [
        "00",
        "00"
      ],
      [
        "3",
        "E"
      ],
      [
        "u00",
        "c"
      ],
      [
        "e",
        "d"
      ],
      [
        "i",
        "m"
      ],
      [
        "u00",
        "8"
      ],
      [
        "u00",
        "b"
      ],
      [
        "u00",
        "f"
      ],
      [
        "1",
        "4"
      ],
      [
        "ec",
        "ko"
      ],
      [
        "u",
        "a"
      ],
      [
        "m",
        "et"
      ],
      [
        "C",
        "h"
      ],
      [
        "9",
        "9"
      ],
      [
        "3",
        "C"
      ],
      [
        "e",
        "b"
      ],
      [
        "1",
        "8"
      ],
      [
        "U",
        "ser"
      ],
      [
        "G",
        "ecko"
      ],
      [
        "ll",
        "a"
      ],
      [
        "zi",
        "lla"
      ],
      [
        "1",
        "5"
      ],
      [
        "Mo",
        "zilla"
      ],
      [
        "he",
        "ad"
      ],
      [
        "ho",
        "d"
      ],
      [
        "met",
        "hod"
      ],
      [
        "=",
        "%"
      ],
      [
        "o",
        "o"
      ],
      [
        "2",
        "7"
      ],
      [
        "re",
        "f"
      ],
      [
        "\"",
        "/"
      ],
      [
        "head",
        "ers"
      ],
      [
        "=",
        "\\\""
      ],
      [
        "t",
        "ent"
      ],
      [
        "A",
        "g"
      ],
      [
        "\\\"",
        ";"
      ],
      [
        "ww",
        "w"
      ],
      [
        "s",
        "_"
      ],
      [
        "t",
        "t"
      ],
      [
        "Ch",
        "ro"
      ],
      [
        "u00",
        "e"
      ],
      [
        "y",
        "p"
      ],
      [
        "et",
        "ch"
      ],
      [
        "o",
        "x"
      ],
      [
        "u00",
        "10"
      ],
      [
        "x",
        "64"
      ],
      [
        "Win",
        "64"
      ],
      [
        "6",
        "6"
      ],
      [
        "4",
        "0"
      ],
      [
        "a",
        "f"
      ],
      [
        "ect",
        "ion"
      ],
      [
        "ce",
        "pt"
      ],
      [
        "p",
        "s"
      ],
      [
        "tr",
        "ue"
      ],
      [
        "_",
        "_"
      ],
      [
        "n",
        "ection"
      ],
      [
        "2",
        "3"
      ],
      [
        "1",
        "00"
      ],
      [
        "Ag",
        "ent"
      ],
      [
        "at",
        "ion"
      ],
      [
        "8",
        "6"
      ],
      [
        "n",
        "t"
      ],
      [
        "c",
        "0"
      ],
      [
        "Con",
        "nection"
      ],
      [
        "4",
        "7"
      ],
      [
        "1",
        "3"
      ],
      [
        "_",
        "s"
      ],
      [
        "0",
        "7"
      ],
      [
        "i",
        "r"
      ],
      [
        ".",
        "."
      ],
      [
        "an",
        "d"
      ],
      [
        "3",
        "B"
      ],
      [
        "f",
        "or"
      ],
      [
        "i",
        "v"
      ],
      [
        "im",
        "age"
      ],
      [
        "5",
        "3"
      ],
      [
        "8",
        "9"
      ],
      [
        "r",
        "v"
      ],
      [
        "yp",
        "e"
      ],
      [
        "lo",
        "se"
      ],
      [
        "F",
        "i"
      ],
      [
        "c",
        "on"
      ],
      [
        "4",
        "9"
      ],
      [
        "I",
        "D"
      ],
      [
        "e",
        "x"
      ],
      [
        "u00d",
        "7"
      ],
      [
        "for",
        "m"
      ],
      [
        "i",
        "s"
      ],
      [
        "6",
        "0"
      ],
      [
        "i",
        "e"
      ],
      [
        "1728",
        "20"
      ],
      [
        "7",
        "B"
      ],
      [
        "5",
        "9"
      ],
      [
        "10",
        "1"
      ],
      [
        "k",
        "e"
      ],
      [
        "h",
        "tt"
      ],
      [
        "\\\\",
        "\\\""
      ],
      [
        "5",
        "37"
      ],
      [
        "1",
        "2"
      ],
      [
        "i",
        "g"
      ],
      [
        "7",
        "D"
      ],
      [
        "20",
        "100"
      ],
      [
        "c",
        "lose"
      ],
      [
        "ref",
        "ox"
      ],
      [
        "Fi",
        "refox"
      ],
      [
        "20100",
        "101"
      ],
      [
        "m",
        "o"
      ],
      [
        "5",
        "0"
      ],
      [
        "u",
        "t"
      ],
      [
        "O",
        "S"
      ],
      [
        "3A",
        "1"
      ],
      [
        "ss",
        "ion"
      ],
      [
        "a",
        "e"
      ],
      [
        "e",
        "f"
      ],
      [
        "G",
        "E"
      ],
      [
        "htt",
        "ps"
      ],
      [
        "5",
        "4"
      ],
      [
        "it",
        "e"
      ],
      [
        "l",
        "at"
      ],
      [
        "Chro",
        "me"
      ],
      [
        "\\\"",
        "\","
      ],
      [
        "li",
        "c"
      ],
      [
        "_",
        "g"
      ],
      [
        "8",
        "3"
      ],
      [
        "a",
        "pp"
      ],
      [
        "u000",
        "4"
      ],
      [
        "M",
        "C"
      ],
      [
        "\"",
        "\\\""
      ],
      [
        "8",
        "7"
      ],
      [
        "A",
        "c"
      ],
      [
        "5",
        "7"
      ],
      [
        "a",
        "me"
      ],
      [
        "4",
        "4"
      ],
      [
        "_",
        "c"
      ],
      [
        "/",
        "/"
      ],
      [
        "u000",
        "2"
      ],
      [
        "9",
        "6"
      ],
      [
        "m",
        "a"
      ],
      [
        "1",
        "29"
      ],
      [
        ",",
        "-"
      ],
      [
        "o",
        "t"
      ],
      [
        "\"",
        "\"},"
      ],
      [
        "GE",
        "T"
      ],
      [
        "9",
        "4"
      ],
      [
        "{",
        "\\\""
      ],
      [
        "c",
        "t"
      ],
      [
        "a",
        "p"
      ],
      [
        "T",
        "ype"
      ],
      [
        "u",
        "s"
      ],
      [
        "_",
        "id"
      ],
      [
        "00",
        "0"
      ],
      [
        "I",
        "d"
      ],
      [
        "f",
        "b"
      ],
      [
        "3",
        "2"
      ],
      [
        "e",
        "st"
      ],
      [
        "8",
        "4"
      ],
      [
        "I",
        "j"
      ],
      [
        "D",
        "7"
      ],
      [
        "U",
        "S"
      ],
      [
        "0",
        "6"
      ],
      [
        ",",
        "\\\""
      ],
      [
        "20",
        "24"
      ],
      [
        "1",
        "_"
      ],
      [
        ":",
        "//"
      ],
      [
        "_",
        "u"
      ],
      [
        "3",
        "3"
      ],
      [
        "_",
        "p"
      ],
      [
        "en",
        "co"
      ],
      [
        "S",
        "ec"
      ],
      [
        "0",
        "5"
      ],
      [
        "k",
        "ie"
      ],
      [
        "lic",
        "ation"
      ],
      [
        "app",
        "lication"
      ],
      [
        "F",
        "etch"
      ],
      [
        "Ac",
        "cept"
      ],
      [
        "m",
        "i"
      ],
      [
        "iv",
        "e"
      ],
      [
        "p",
        "r"
      ],
      [
        "u",
        "m"
      ],
      [
        "se",
        "ssion"
      ],
      [
        "9",
        "7"
      ],
      [
        "f",
        "etch"
      ],
      [
        "2",
        "B"
      ],
      [
        "4",
        "6"
      ],
      [
        "3",
        "c"
      ],
      [
        "OS",
        "T"
      ],
      [
        "9",
        "0"
      ],
      [
        "3",
        "0"
      ],
      [
        "P",
        "OST"
      ],
      [
        "\\\\",
        "\\\":"
      ],
      [
        "f",
        "al"
      ],
      [
        "f",
        "0"
      ],
      [
        "a",
        "m"
      ],
      [
        "fal",
        "se"
      ],
      [
        "M",
        "L"
      ],
      [
        "de",
        "d"
      ],
      [
        "c",
        "1"
      ],
      [
        "g",
        "le"
      ],
      [
        "Con",
        "tent"
      ],
      [
        "2",
        "1"
      ],
      [
        "7",
        "7"
      ],
      [
        "a",
        "v"
      ],
      [
        "ac",
        "cept"
      ],
      [
        "se",
        "nt"
      ],
      [
        "oo",
        "gle"
      ],
      [
        "e",
        "v"
      ],
      [
        "x",
        "b"
      ],
      [
        "ir",
        "ect"
      ],
      [
        "5",
        "D"
      ],
      [
        "u",
        "n"
      ],
      [
        "4",
        "b"
      ],
      [
        "u000",
        "5"
      ],
      [
        "b",
        "i"
      ],
      [
        "g",
        "u"
      ],
      [
        "K",
        "H"
      ],
      [
        "4",
        "3"
      ],
      [
        "7",
        "0"
      ],
      [
        "5",
        "B"
      ],
      [
        "N",
        "ot"
      ],
      [
        "e",
        "0"
      ],
      [
        "8",
        "8"
      ],
      [
        "c",
        "l"
      ],
      [
        "i",
        "f"
      ],
      [
        "p",
        "ro"
      ],
      [
        "A",
        "Q"
      ],
      [
        "/",
        "*"
      ],
      [
        "s",
        "c"
      ],
      [
        "5",
        "1"
      ],
      [
        "0000",
        "0000"
      ],
      [
        "7",
        "6"
      ],
      [
        "28",
        "1"
      ],
      [
        "ex",
        "p"
      ],
      [
        "i",
        "l"
      ],
      [
        "B",
        "r"
      ],
      [
        "4",
        "d"
      ],
      [
        "5",
        "2"
      ],
      [
        "o",
        "m"
      ],
      [
        "re",
        "d"
      ],
      [
        "u000",
        "1"
      ],
      [
        "m",
        "l"
      ],
      [
        "..",
        "/"
      ],
      [
        "M",
        "T"
      ],
      [
        "20",
        "on"
      ],
      [
        "ab",
        "le"
      ],
      [
        "ar",
        "i"
      ],
      [
        "d",
        "d"
      ],
      [
        "3",
        "8"
      ],
      [
        "enco",
        "ded"
      ],
      [
        ".",
        "%"
      ],
      [
        "url",
        "encoded"
      ],
      [
        "C",
        "000"
      ],
      [
        "e",
        "l"
      ],
      [
        "I",
        "n"
      ],
      [
        "c",
        "d"
      ],
      [
        "5",
        "8"
      ],
      [
        "de",
        "f"
      ],
      [
        "A",
        "B"
      ],
      [
        "\"/",
        "\","
      ],
      [
        "it",
        "y"
      ],
      [
        "t",
        "s"
      ],
      [
        "p",
        "c"
      ],
      [
        "3",
        "9"
      ],
      [
        "a",
        "0"
      ],
      [
        "\"/",
        "?"
      ],
      [
        "172820",
        "55"
      ],
      [
        "r",
        "s"
      ],
      [
        "3",
        "4"
      ],
      [
        "t",
        "o"
      ],
      [
        "d",
        "ing"
      ],
      [
        "A",
        "pp"
      ],
      [
        "G",
        "oogle"
      ],
      [
        "e",
        "m"
      ],
      [
        "u000",
        "3"
      ],
      [
        "W",
        "eb"
      ],
      [
        "K",
        "it"
      ],
      [
        "Web",
        "Kit"
      ],
      [
        "s",
        "ite"
      ],
      [
        "p",
        "lat"
      ],
      [
        "E",
        "n"
      ],
      [
        "7",
        "4"
      ],
      [
        "i",
        "c"
      ],
      [
        "li",
        "ke"
      ],
      [
        "af",
        "ari"
      ],
      [
        "b",
        "m"
      ],
      [
        "T",
        "ML"
      ],
      [
        "App",
        "le"
      ],
      [
        "S",
        "afari"
      ],
      [
        "KH",
        "TML"
      ],
      [
        "Apple",
        "WebKit"
      ],
      [
        "b",
        "b"
      ],
      [
        "7",
        "8"
      ],
      [
        "an",
        "gu"
      ],
      [
        "angu",
        "age"
      ],
      [
        "l",
        "a"
      ],
      [
        "3",
        "d"
      ],
      [
        "n",
        "o"
      ],
      [
        "5",
        "c"
      ],
      [
        "mi",
        "um"
      ],
      [
        "Br",
        "and"
      ],
      [
        "plat",
        "form"
      ],
      [
        "Chro",
        "mium"
      ],
      [
        "8",
        "2"
      ],
      [
        "f",
        "e"
      ],
      [
        "C",
        "J"
      ],
      [
        "A",
        "1"
      ],
      [
        "a",
        "9"
      ],
      [
        "i",
        "o"
      ],
      [
        "u",
        "ct"
      ],
      [
        "zi",
        "p"
      ],
      [
        "5",
        "e"
      ],
      [
        "|",
        "|"
      ],
      [
        "b",
        "9"
      ],
      [
        "n",
        "g"
      ],
      [
        "1728",
        "56"
      ],
      [
        "3",
        "F"
      ],
      [
        "~",
        "-"
      ],
      [
        "ac",
        "t"
      ],
      [
        "red",
        "irect"
      ],
      [
        "9",
        "8"
      ],
      [
        "u000",
        "6"
      ],
      [
        "u",
        "id"
      ],
      [
        "c",
        "a"
      ],
      [
        "I",
        "6"
      ],
      [
        "N",
        "z"
      ],
      [
        "0",
        "1"
      ],
      [
        "\"",
        "?"
      ],
      [
        "2C",
        "C000"
      ],
      [
        "7C",
        "MC"
      ],
      [
        "S",
        "e"
      ],
      [
        "ho",
        "st"
      ],
      [
        "lat",
        "e"
      ],
      [
        "g",
        "zip"
      ],
      [
        "def",
        "late"
      ],
      [
        "f",
        "8"
      ],
      [
        "bi",
        "le"
      ],
      [
        "e",
        "6"
      ],
      [
        "mo",
        "bile"
      ],
      [
        "f",
        "d"
      ],
      [
        "er",
        "er"
      ],
      [
        "a",
        "_"
      ],
      [
        "G",
        "S"
      ],
      [
        "7",
        "9"
      ],
      [
        "t",
        "h"
      ],
      [
        "_",
        "a"
      ],
      [
        "AA",
        "Q"
      ],
      [
        "ers",
        "ion"
      ],
      [
        "co",
        "o"
      ],
      [
        "con",
        "tent"
      ],
      [
        "f",
        "c"
      ],
      [
        "6",
        "3"
      ],
      [
        "*",
        "/*"
      ],
      [
        "c",
        "k"
      ],
      [
        "a",
        "6"
      ],
      [
        "O",
        "N"
      ],
      [
        "i",
        "me"
      ],
      [
        "coo",
        "kie"
      ],
      [
        "b",
        "e"
      ],
      [
        "at",
        "e"
      ],
      [
        "AQ",
        "AA"
      ],
      [
        "co",
        "rs"
      ],
      [
        "ev",
        "ent"
      ],
      [
        "5",
        "d"
      ],
      [
        "R",
        "T"
      ],
      [
        "0",
        "9"
      ],
      [
        "Y",
        "AAQ"
      ],
      [
        "../",
        "../"
      ],
      [
        "w",
        "i"
      ],
      [
        "u",
        "l"
      ],
      [
        "s",
        "h"
      ],
      [
        "at",
        "tent"
      ],
      [
        "attent",
        "ive"
      ],
      [
        "__",
        "attentive"
      ],
      [
        "1",
        "26"
      ],
      [
        "c",
        "6"
      ],
      [
        "2",
        "b"
      ],
      [
        "e",
        "e"
      ],
      [
        "w",
        "eb"
      ],
      [
        "_",
        "d"
      ],
      [
        "p",
        "g"
      ],
      [
        "e",
        "y"
      ],
      [
        "T",
        "A"
      ],
      [
        "ig",
        "in"
      ],
      [
        "f",
        "f"
      ],
      [
        "b",
        "c"
      ],
      [
        "N",
        "D"
      ],
      [
        "p",
        "age"
      ],
      [
        "ig",
        "n"
      ],
      [
        ".",
        "-"
      ],
      [
        "4",
        "8"
      ],
      [
        "i",
        "O"
      ],
      [
        "c",
        "c"
      ],
      [
        "ar",
        "t"
      ],
      [
        "p",
        "a"
      ],
      [
        "u",
        "ser"
      ],
      [
        "I",
        "m"
      ],
      [
        "M",
        "D"
      ],
      [
        "1",
        "f"
      ],
      [
        "a",
        "k"
      ],
      [
        "5",
        "b"
      ],
      [
        "a",
        "3"
      ],
      [
        "H",
        "o"
      ],
      [
        "0",
        "d"
      ],
      [
        "u00",
        "00"
      ],
      [
        "3B",
        "exp"
      ],
      [
        "_",
        "t"
      ],
      [
        "0",
        "3"
      ],
      [
        "n",
        "ame"
      ],
      [
        "e",
        "p"
      ],
      [
        "er",
        "t"
      ],
      [
        "i",
        "ce"
      ],
      [
        "M",
        "j"
      ],
      [
        "C",
        "o"
      ],
      [
        "1728",
        "66"
      ],
      [
        "c",
        "3"
      ],
      [
        "9",
        "c"
      ],
      [
        "W",
        "x"
      ],
      [
        "0",
        "8"
      ],
      [
        "j",
        "s"
      ],
      [
        "c",
        "2"
      ],
      [
        "a",
        "s"
      ],
      [
        "n",
        "i"
      ],
      [
        "d",
        "r"
      ],
      [
        "16",
        "6"
      ],
      [
        "t",
        "er"
      ],
      [
        "7",
        "3"
      ],
      [
        "s",
        "v"
      ],
      [
        "an",
        "on"
      ],
      [
        "_u",
        "et"
      ],
      [
        "st",
        "y"
      ],
      [
        "6",
        "8"
      ],
      [
        "b",
        "o"
      ],
      [
        "ma",
        "in"
      ],
      [
        "o",
        "w"
      ],
      [
        "d",
        "w"
      ],
      [
        "=",
        ";"
      ],
      [
        "u",
        "nt"
      ],
      [
        "4",
        "5"
      ],
      [
        "d",
        "i"
      ],
      [
        "9",
        "1"
      ],
      [
        "d",
        "6"
      ],
      [
        "F",
        "B"
      ],
      [
        "1",
        "d"
      ],
      [
        "C",
        "oo"
      ],
      [
        "D",
        "F"
      ],
      [
        "or",
        "y"
      ],
      [
        "Coo",
        "kie"
      ],
      [
        "v",
        "ersion"
      ],
      [
        "v",
        "is"
      ],
      [
        "9",
        "5"
      ],
      [
        "S",
        "T"
      ],
      [
        "u",
        "b"
      ],
      [
        "u",
        "p"
      ],
      [
        "z",
        "st"
      ],
      [
        "zst",
        "d"
      ],
      [
        "11",
        "ef"
      ],
      [
        "2",
        "f"
      ],
      [
        "\\\":",
        "{\\\""
      ],
      [
        "q",
        "ue"
      ],
      [
        "1728",
        "10"
      ],
      [
        "b",
        "oo"
      ],
      [
        "r",
        "i"
      ],
      [
        "ex",
        "t"
      ],
      [
        "E",
        "A"
      ],
      [
        "a",
        "8"
      ],
      [
        "and",
        "ing"
      ],
      [
        "or",
        "igin"
      ],
      [
        "Z",
        "W"
      ],
      [
        "e",
        "o"
      ],
      [
        "b",
        "n"
      ],
      [
        "O",
        "r"
      ],
      [
        "A",
        "4"
      ],
      [
        "Ij",
        "o"
      ],
      [
        "F",
        "w"
      ],
      [
        "se",
        "t"
      ],
      [
        "3",
        "5"
      ],
      [
        "7",
        "5"
      ],
      [
        "t",
        "est"
      ],
      [
        "4",
        "c"
      ],
      [
        "l",
        "k"
      ],
      [
        "N",
        "j"
      ],
      [
        "\\\\\\\":",
        "\\\\\\\""
      ],
      [
        "4",
        "1"
      ],
      [
        "li",
        "ent"
      ],
      [
        "_g",
        "cl"
      ],
      [
        "8",
        "18"
      ],
      [
        "con",
        "sent"
      ],
      [
        "3E",
        "test"
      ],
      [
        "A",
        "w"
      ],
      [
        "M",
        "z"
      ],
      [
        "Z",
        "X"
      ],
      [
        "g",
        "p"
      ],
      [
        "d",
        "uct"
      ],
      [
        "d",
        "b"
      ],
      [
        "S",
        "ite"
      ],
      [
        "s",
        "id"
      ],
      [
        "0",
        "_"
      ],
      [
        "Ho",
        "st"
      ],
      [
        "D",
        "D"
      ],
      [
        "U",
        "V"
      ],
      [
        "d",
        "c"
      ],
      [
        "1",
        "a"
      ],
      [
        "\\\\",
        "\\\","
      ],
      [
        "am",
        "p"
      ],
      [
        "st",
        "r"
      ],
      [
        "p",
        "b"
      ],
      [
        "7",
        "1"
      ],
      [
        "h",
        "t"
      ],
      [
        "_",
        "re"
      ],
      [
        "c",
        "8"
      ],
      [
        "s",
        "ame"
      ],
      [
        "C",
[...]
